{
  "version": "1.0",
  "truncation": null,
  "padding": null,
  "added_tokens": [],
  "normalizer": {
    "type": "Sequence",
    "normalizers": [
      {
        "type": "Strip",
        "strip_left": true,
        "strip_right": true
      },
      {
        "type": "StripAccents"
      },
      {
        "type": "Lowercase"
      }
    ]
  },
  "pre_tokenizer": {
    "type": "Sequence",
    "pretokenizers": [
      {
        "type": "Punctuation",
        "behavior": "Isolated"
      },
      {
        "type": "WhitespaceSplit"
      },
      {
        "type": "ByteLevel",
        "add_prefix_space": true,
        "trim_offsets": true,
        "use_regex": false
      }
    ]
  },
  "post_processor": null,
  "decoder": {
    "type": "ByteLevel",
    "add_prefix_space": true,
    "trim_offsets": true,
    "use_regex": true
  },
  "model": {
    "type": "BPE",
    "dropout": null,
    "unk_token": null,
    "continuing_subword_prefix": "##",
    "end_of_word_suffix": null,
    "fuse_unk": false,
    "vocab": {
      "!": 0,
      "\"": 1,
      "#": 2,
      "$": 3,
      "%": 4,
      "&": 5,
      "'": 6,
      "(": 7,
      ")": 8,
      "*": 9,
      "+": 10,
      ",": 11,
      "-": 12,
      ".": 13,
      "/": 14,
      "0": 15,
      "1": 16,
      "2": 17,
      "3": 18,
      "4": 19,
      "5": 20,
      "6": 21,
      "7": 22,
      "8": 23,
      "9": 24,
      ":": 25,
      ";": 26,
      "<": 27,
      "=": 28,
      ">": 29,
      "?": 30,
      "@": 31,
      "A": 32,
      "B": 33,
      "C": 34,
      "D": 35,
      "E": 36,
      "F": 37,
      "G": 38,
      "H": 39,
      "I": 40,
      "J": 41,
      "K": 42,
      "L": 43,
      "M": 44,
      "N": 45,
      "O": 46,
      "P": 47,
      "Q": 48,
      "R": 49,
      "S": 50,
      "T": 51,
      "U": 52,
      "V": 53,
      "W": 54,
      "X": 55,
      "Y": 56,
      "Z": 57,
      "[": 58,
      "\\": 59,
      "]": 60,
      "^": 61,
      "_": 62,
      "`": 63,
      "a": 64,
      "b": 65,
      "c": 66,
      "d": 67,
      "e": 68,
      "f": 69,
      "g": 70,
      "h": 71,
      "i": 72,
      "j": 73,
      "k": 74,
      "l": 75,
      "m": 76,
      "n": 77,
      "o": 78,
      "p": 79,
      "q": 80,
      "r": 81,
      "s": 82,
      "t": 83,
      "u": 84,
      "v": 85,
      "w": 86,
      "x": 87,
      "y": 88,
      "z": 89,
      "{": 90,
      "|": 91,
      "}": 92,
      "~": 93,
      "¡": 94,
      "¢": 95,
      "£": 96,
      "¤": 97,
      "¥": 98,
      "¦": 99,
      "§": 100,
      "¨": 101,
      "©": 102,
      "ª": 103,
      "«": 104,
      "¬": 105,
      "®": 106,
      "¯": 107,
      "°": 108,
      "±": 109,
      "²": 110,
      "³": 111,
      "´": 112,
      "µ": 113,
      "¶": 114,
      "·": 115,
      "¸": 116,
      "¹": 117,
      "º": 118,
      "»": 119,
      "¼": 120,
      "½": 121,
      "¾": 122,
      "¿": 123,
      "À": 124,
      "Á": 125,
      "Â": 126,
      "Ã": 127,
      "Ä": 128,
      "Å": 129,
      "Æ": 130,
      "Ç": 131,
      "È": 132,
      "É": 133,
      "Ê": 134,
      "Ë": 135,
      "Ì": 136,
      "Í": 137,
      "Î": 138,
      "Ï": 139,
      "Ð": 140,
      "Ñ": 141,
      "Ò": 142,
      "Ó": 143,
      "Ô": 144,
      "Õ": 145,
      "Ö": 146,
      "×": 147,
      "Ø": 148,
      "Ù": 149,
      "Ú": 150,
      "Û": 151,
      "Ü": 152,
      "Ý": 153,
      "Þ": 154,
      "ß": 155,
      "à": 156,
      "á": 157,
      "â": 158,
      "ã": 159,
      "ä": 160,
      "å": 161,
      "æ": 162,
      "ç": 163,
      "è": 164,
      "é": 165,
      "ê": 166,
      "ë": 167,
      "ì": 168,
      "í": 169,
      "î": 170,
      "ï": 171,
      "ð": 172,
      "ñ": 173,
      "ò": 174,
      "ó": 175,
      "ô": 176,
      "õ": 177,
      "ö": 178,
      "÷": 179,
      "ø": 180,
      "ù": 181,
      "ú": 182,
      "û": 183,
      "ü": 184,
      "ý": 185,
      "þ": 186,
      "ÿ": 187,
      "Ā": 188,
      "ā": 189,
      "Ă": 190,
      "ă": 191,
      "Ą": 192,
      "ą": 193,
      "Ć": 194,
      "ć": 195,
      "Ĉ": 196,
      "ĉ": 197,
      "Ċ": 198,
      "ċ": 199,
      "Č": 200,
      "č": 201,
      "Ď": 202,
      "ď": 203,
      "Đ": 204,
      "đ": 205,
      "Ē": 206,
      "ē": 207,
      "Ĕ": 208,
      "ĕ": 209,
      "Ė": 210,
      "ė": 211,
      "Ę": 212,
      "ę": 213,
      "Ě": 214,
      "ě": 215,
      "Ĝ": 216,
      "ĝ": 217,
      "Ğ": 218,
      "ğ": 219,
      "Ġ": 220,
      "ġ": 221,
      "Ģ": 222,
      "ģ": 223,
      "Ĥ": 224,
      "ĥ": 225,
      "Ħ": 226,
      "ħ": 227,
      "Ĩ": 228,
      "ĩ": 229,
      "Ī": 230,
      "ī": 231,
      "Ĭ": 232,
      "ĭ": 233,
      "Į": 234,
      "į": 235,
      "İ": 236,
      "ı": 237,
      "Ĳ": 238,
      "ĳ": 239,
      "Ĵ": 240,
      "ĵ": 241,
      "Ķ": 242,
      "ķ": 243,
      "ĸ": 244,
      "Ĺ": 245,
      "ĺ": 246,
      "Ļ": 247,
      "ļ": 248,
      "Ľ": 249,
      "ľ": 250,
      "Ŀ": 251,
      "ŀ": 252,
      "Ł": 253,
      "ł": 254,
      "Ń": 255,
      "##w": 256,
      "##i": 257,
      "##y": 258,
      "##a": 259,
      "##q": 260,
      "##k": 261,
      "##f": 262,
      "##t": 263,
      "##Ã": 264,
      "##ł": 265,
      "##Ð": 266,
      "##´": 267,
      "##°": 268,
      "##»": 269,
      "##Ñ": 270,
      "##ĥ": 271,
      "##b": 272,
      "##2": 273,
      "##0": 274,
      "##5": 275,
      "##e": 276,
      "##r": 277,
      "##o": 278,
      "##d": 279,
      "##n": 280,
      "##9": 281,
      "##8": 282,
      "##s": 283,
      "##u": 284,
      "##p": 285,
      "##m": 286,
      "##h": 287,
      "##l": 288,
      "##7": 289,
      "##g": 290,
      "##j": 291,
      "##1": 292,
      "##6": 293,
      "##Ø": 294,
      "##º": 295,
      "##Ù": 296,
      "##Ĩ": 297,
      "##µ": 298,
      "##§": 299,
      "##Ħ": 300,
      "##¨": 301,
      "##ĩ": 302,
      "##¢": 303,
      "##c": 304,
      "##z": 305,
      "##3": 306,
      "##4": 307,
      "##v": 308,
      "##à": 309,
      "##¤": 310,
      "##¹": 311,
      "##²": 312,
      "##ĸ": 313,
      "##¡": 314,
      "##x": 315,
      "##¼": 316,
      "##±": 317,
      "##¸": 318,
      "##Ĥ": 319,
      "##¾": 320,
      "##ì": 321,
      "##Į": 322,
      "##ã": 323,
      "##į": 324,
      "##ļ": 325,
      "##Ŀ": 326,
      "##ĺ": 327,
      "##ķ": 328,
      "##è": 329,
      "##Ĭ": 330,
      "##ç": 331,
      "##Ķ": 332,
      "##Ł": 333,
      "##å": 334,
      "##©": 335,
      "##é": 336,
      "##Ń": 337,
      "##ı": 338,
      "##£": 339,
      "##«": 340,
      "##ĵ": 341,
      "##Ĵ": 342,
      "##ľ": 343,
      "##×": 344,
      "##ĳ": 345,
      "##Ļ": 346,
      "##Ä": 347,
      "##ħ": 348,
      "##Å": 349,
      "##Ľ": 350,
      "##Ï": 351,
      "##Ģ": 352,
      "##Î": 353,
      "##¿": 354,
      "##İ": 355,
      "##ĭ": 356,
      "##¶": 357,
      "##ë": 358,
      "##â": 359,
      "##Ī": 360,
      "##¥": 361,
      "##È": 362,
      "##æ": 363,
      "##ģ": 364,
      "##ª": 365,
      "##Û": 366,
      "##Ĳ": 367,
      "##ī": 368,
      "##á": 369,
      "##®": 370,
      "##¯": 371,
      "##ï": 372,
      "##½": 373,
      "##ŀ": 374,
      "##Â": 375,
      "##³": 376,
      "##É": 377,
      "##¦": 378,
      "##Ê": 379,
      "##¬": 380,
      "##ä": 381,
      "##·": 382,
      "##Ĺ": 383,
      "##í": 384,
      "##ê": 385,
      "##Ú": 386,
      "##ß": 387,
      "##ô": 388,
      "##Ç": 389,
      "##Ò": 390,
      "##Õ": 391,
      "##Ö": 392,
      "##Ë": 393,
      "##Ó": 394,
      "##Ì": 395,
      "##ð": 396,
      "##Ü": 397,
      "##Þ": 398,
      "##Æ": 399,
      "##|": 400,
      "##?": 401,
      "##Ô": 402,
      "##Ý": 403,
      "##Í": 404,
      "##ó": 405,
      "##(": 406,
      "##*": 407,
      "##;": 408,
      "##!": 409,
      "##.": 410,
      "##î": 411,
      "##^": 412,
      "##=": 413,
      "##{": 414,
      "##>": 415,
      "##:": 416,
      "##$": 417,
      "##'": 418,
      "##~": 419,
      "##\"": 420,
      "##\\": 421,
      "##+": 422,
      "##)": 423,
      "##<": 424,
      "##,": 425,
      "##/": 426,
      "##_": 427,
      "###": 428,
      "##]": 429,
      "##@": 430,
      "##[": 431,
      "##}": 432,
      "##`": 433,
      "##&": 434,
      "##%": 435,
      "##-": 436,
      "Ġt": 437,
      "Ġa": 438,
      "##he": 439,
      "##in": 440,
      "Ġthe": 441,
      "Ġs": 442,
      "##er": 443,
      "##on": 444,
      "Ġ,": 445,
      "##re": 446,
      "Ġ.": 447,
      "Ġc": 448,
      "Ġo": 449,
      "Ġw": 450,
      "##ed": 451,
      "##nd": 452,
      "Ġb": 453,
      "Ġf": 454,
      "##at": 455,
      "Ġin": 456,
      "Ġp": 457,
      "##or": 458,
      "##is": 459,
      "##en": 460,
      "##it": 461,
      "##an": 462,
      "Ġm": 463,
      "##ar": 464,
      "Ġof": 465,
      "##al": 466,
      "##es": 467,
      "Ġd": 468,
      "##as": 469,
      "Ġand": 470,
      "##ing": 471,
      "##ic": 472,
      "##ro": 473,
      "Ġh": 474,
      "Ġl": 475,
      "Ġto": 476,
      "##ion": 477,
      "Ġ1": 478,
      "Ġn": 479,
      "##il": 480,
      "##ou": 481,
      "Ġre": 482,
      "Ġg": 483,
      "Ġe": 484,
      "##ent": 485,
      "##le": 486,
      "##st": 487,
      "##am": 488,
      "##om": 489,
      "##el": 490,
      "Ġth": 491,
      "##ol": 492,
      "Ġ2": 493,
      "##ct": 494,
      "Ġwas": 495,
      "Ġ-": 496,
      "Ġon": 497,
      "##ad": 498,
      "Ġu": 499,
      "Ġhe": 500,
      "Ġst": 501,
      "Ġfor": 502,
      "##ur": 503,
      "##et": 504,
      "##iv": 505,
      "##ch": 506,
      "Ġis": 507,
      "Ġ\"": 508,
      "Ġas": 509,
      "##ir": 510,
      "##ation": 511,
      "##ig": 512,
      "##id": 513,
      "Ġ)": 514,
      "Ġ(": 515,
      "##ce": 516,
      "##ly": 517,
      "Ġ19": 518,
      "##im": 519,
      "Ġr": 520,
      "##ot": 521,
      "Ġbe": 522,
      "##ut": 523,
      "Ġv": 524,
      "Ġj": 525,
      "##ers": 526,
      "##la": 527,
      "Ġ'": 528,
      "Ġal": 529,
      "##ith": 530,
      "Ġ20": 531,
      "##ow": 532,
      "Ġwith": 533,
      "##ter": 534,
      "##em": 535,
      "Ġk": 536,
      "Ġan": 537,
      "Ġby": 538,
      "##ra": 539,
      "##us": 540,
      "Ġat": 541,
      "Ġcon": 542,
      "Ġ|": 543,
      "Ġit": 544,
      "Ġwh": 545,
      "##ist": 546,
      "Ġde": 547,
      "Ġch": 548,
      "Ġse": 549,
      "##ul": 550,
      "##rom": 551,
      "##th": 552,
      "Ġcom": 553,
      "##os": 554,
      "##ay": 555,
      "##ver": 556,
      "##um": 557,
      "##her": 558,
      "Ġpro": 559,
      "##ge": 560,
      "Ġthat": 561,
      "##est": 562,
      "##un": 563,
      "Ġfrom": 564,
      "##ri": 565,
      "Ġâ": 566,
      "ĠâĢ": 567,
      "Ġhis": 568,
      "##pe": 569,
      "##oc": 570,
      "##ber": 571,
      "Ġne": 572,
      "##ain": 573,
      "##ac": 574,
      "Ġy": 575,
      "##ity": 576,
      "Ġor": 577,
      "Ġun": 578,
      "##res": 579,
      "##art": 580,
      "##if": 581,
      "##op": 582,
      "Ġsu": 583,
      "##av": 584,
      "##and": 585,
      "##od": 586,
      "##ate": 587,
      "##ies": 588,
      "##se": 589,
      "Ġle": 590,
      "##ud": 591,
      "##qu": 592,
      "##ia": 593,
      "##ian": 594,
      "##ard": 595,
      "##ort": 596,
      "##igh": 597,
      "##all": 598,
      "Ġro": 599,
      "##ill": 600,
      "##ld": 601,
      "##ich": 602,
      "##ab": 603,
      "##ak": 604,
      "##ore": 605,
      "Ġex": 606,
      "Ġ201": 607,
      "##ated": 608,
      "Ġsh": 609,
      "Ġar": 610,
      "##ip": 611,
      "Ġare": 612,
      "##ess": 613,
      "##ag": 614,
      "##ant": 615,
      "##ov": 616,
      "##ap": 617,
      "##ere": 618,
      "##ary": 619,
      "##ive": 620,
      "##ment": 621,
      "Ġ200": 622,
      "##oun": 623,
      "ĠâĢĵ": 624,
      "Ġ:": 625,
      "##ial": 626,
      "##ie": 627,
      "Ġwere": 628,
      "##ug": 629,
      "##ame": 630,
      "##ast": 631,
      "##ong": 632,
      "##ine": 633,
      "Ġwor": 634,
      "##our": 635,
      "Ġwhich": 636,
      "Ġaf": 637,
      "##ire": 638,
      "Ġ3": 639,
      "Ġcomp": 640,
      "##ell": 641,
      "##ction": 642,
      "##ub": 643,
      "Ġpla": 644,
      "##ust": 645,
      "Ġte": 646,
      "##ish": 647,
      "##pp": 648,
      "##ost": 649,
      "##ure": 650,
      "##ight": 651,
      "Ġ18": 652,
      "Ġmar": 653,
      "##so": 654,
      "##ical": 655,
      "##mer": 656,
      "Ġad": 657,
      "Ġnew": 658,
      "##pt": 659,
      "Ġen": 660,
      "##og": 661,
      "Ġfir": 662,
      "Ġwhe": 663,
      "Ġcl": 664,
      "Ġthis": 665,
      "##ther": 666,
      "Ġinc": 667,
      "Ġsp": 668,
      "##te": 669,
      "##ord": 670,
      "Ġser": 671,
      "Ġalso": 672,
      "##ign": 673,
      "##ran": 674,
      "Ġnot": 675,
      "Ġfirst": 676,
      "##cc": 677,
      "Ġhad": 678,
      "Ġsc": 679,
      "##per": 680,
      "Ġman": 681,
      "##ear": 682,
      "Ġher": 683,
      "Ġpart": 684,
      "Ġhas": 685,
      "##ous": 686,
      "##ue": 687,
      "Ġshe": 688,
      "##ition": 689,
      "##00": 690,
      "##ry": 691,
      "Ġab": 692,
      "##are": 693,
      "Ġcont": 694,
      "##ok": 695,
      "##iz": 696,
      "Ġtw": 697,
      "Ġ4": 698,
      "##ric": 699,
      "Ġcol": 700,
      "##ave": 701,
      "Ġafter": 702,
      "##uc": 703,
      "Ġcomm": 704,
      "##ide": 705,
      "##ass": 706,
      "Ġone": 707,
      "Ġus": 708,
      "Ġits": 709,
      "Ġyear": 710,
      "##rit": 711,
      "Ġtheir": 712,
      "Ġall": 713,
      "##ond": 714,
      "Ġres": 715,
      "##ome": 716,
      "Ġwho": 717,
      "##man": 718,
      "##ice": 719,
      "Ġ5": 720,
      "##ount": 721,
      "##hed": 722,
      "Ġbut": 723,
      "##ater": 724,
      "Ġgo": 725,
      "Ġ;": 726,
      "Ġag": 727,
      "Ġper": 728,
      "Ġplay": 729,
      "Ġind": 730,
      "##und": 731,
      "Ġint": 732,
      "Ġco": 733,
      "##ib": 734,
      "Ġrec": 735,
      "Ġ199": 736,
      "##ree": 737,
      "##ational": 738,
      "##own": 739,
      "Ġtim": 740,
      "Ġrep": 741,
      "##age": 742,
      "##ect": 743,
      "##ks": 744,
      "##ru": 745,
      "##wn": 746,
      "##land": 747,
      "##ts": 748,
      "##ations": 749,
      "##ach": 750,
      "##ence": 751,
      "##ang": 752,
      "Ġcan": 753,
      "Ġfe": 754,
      "Ġtwo": 755,
      "Ġthey": 756,
      "Ġbo": 757,
      "##ember": 758,
      "Ġoff": 759,
      "##orn": 760,
      "##lud": 761,
      "##amp": 762,
      "Ġinter": 763,
      "Ġbec": 764,
      "##ound": 765,
      "##ugh": 766,
      "Ġsch": 767,
      "##ff": 768,
      "##ould": 769,
      "##ory": 770,
      "##out": 771,
      "##ke": 772,
      "##ens": 773,
      "##ally": 774,
      "##ult": 775,
      "##ren": 776,
      "##ions": 777,
      "Ġim": 778,
      "Ġdes": 779,
      "Ġhave": 780,
      "##up": 781,
      "Ġother": 782,
      "Ġjo": 783,
      "Ġinclud": 784,
      "Ġi": 785,
      "Ġdis": 786,
      "Ġpres": 787,
      "Ġpre": 788,
      "Ġap": 789,
      "##uring": 790,
      "##ubl": 791,
      "Ġfin": 792,
      "Ġ6": 793,
      "Ġcent": 794,
      "Ġme": 795,
      "##ates": 796,
      "##ack": 797,
      "Ġpr": 798,
      "##ail": 799,
      "##ade": 800,
      "##ild": 801,
      "Ġspe": 802,
      "Ġup": 803,
      "##ile": 804,
      "Ġsec": 805,
      "Ġbeen": 806,
      "##ited": 807,
      "##nder": 808,
      "Ġout": 809,
      "##ased": 810,
      "Ġev": 811,
      "Ġgro": 812,
      "Ġla": 813,
      "Ġed": 814,
      "##ool": 815,
      "Ġreg": 816,
      "##ck": 817,
      "Ġqu": 818,
      "##ph": 819,
      "Ġtra": 820,
      "##les": 821,
      "Ġserv": 822,
      "Ġpar": 823,
      "##ied": 824,
      "Ġpol": 825,
      "Ġover": 826,
      "##vel": 827,
      "##act": 828,
      "Ġass": 829,
      "Ġwe": 830,
      "##ivers": 831,
      "##we": 832,
      "Ġ198": 833,
      "##ite": 834,
      "##ely": 835,
      "##urn": 836,
      "##for": 837,
      "Ġele": 838,
      "##ces": 839,
      "Ġpl": 840,
      "##gh": 841,
      "Ġ7": 842,
      "##ents": 843,
      "Ġph": 844,
      "Ġwhen": 845,
      "Ġpe": 846,
      "##old": 847,
      "Ġduring": 848,
      "Ġkn": 849,
      "Ġtime": 850,
      "Ġam": 851,
      "##ted": 852,
      "##low": 853,
      "Ġbu": 854,
      "Ġcar": 855,
      "Ġthere": 856,
      "##ward": 857,
      "Ġgen": 858,
      "##ors": 859,
      "Ġsou": 860,
      "Ġloc": 861,
      "Ġmus": 862,
      "##iss": 863,
      "Ġwork": 864,
      "##one": 865,
      "##fer": 866,
      "Ġfil": 867,
      "Ġmay": 868,
      "Ġnor": 869,
      "Ġschool": 870,
      "##ced": 871,
      "Ġact": 872,
      "Ġsy": 873,
      "##ase": 874,
      "Ġbro": 875,
      "Ġmin": 876,
      "Ġ8": 877,
      "##ican": 878,
      "##hip": 879,
      "Ġunder": 880,
      "Ġcount": 881,
      "##lo": 882,
      "##ath": 883,
      "##ason": 884,
      "##gan": 885,
      "Ġbet": 886,
      "Ġinto": 887,
      "Ġacc": 888,
      "Ġpubl": 889,
      "Ġamer": 890,
      "##ose": 891,
      "Ġ197": 892,
      "Ġapp": 893,
      "##ings": 894,
      "##ance": 895,
      "##able": 896,
      "##io": 897,
      "Ġma": 898,
      "Ġstud": 899,
      "Ġdist": 900,
      "Ġeng": 901,
      "Ġwar": 902,
      "Ġunivers": 903,
      "Ġ9": 904,
      "##ne": 905,
      "Ġcons": 906,
      "Ġear": 907,
      "##als": 908,
      "Ġtr": 909,
      "Ġz": 910,
      "##ve": 911,
      "Ġ/": 912,
      "Ġpo": 913,
      "##red": 914,
      "##cted": 915,
      "##ton": 916,
      "Ġmore": 917,
      "Ġfilm": 918,
      "##ough": 919,
      "##way": 920,
      "##ace": 921,
      "Ġac": 922,
      "Ġhim": 923,
      "Ġteam": 924,
      "##ished": 925,
      "##ft": 926,
      "Ġno": 927,
      "Ġprod": 928,
      "Ġfound": 929,
      "Ġso": 930,
      "Ġwin": 931,
      "Ġworld": 932,
      "##ress": 933,
      "##ious": 934,
      "Ġnational": 935,
      "Ġsub": 936,
      "Ġmon": 937,
      "Ġmost": 938,
      "##rib": 939,
      "Ġgre": 940,
      "Ġem": 941,
      "Ġ196": 942,
      "Ġchar": 943,
      "Ġfol": 944,
      "##ake": 945,
      "Ġart": 946,
      "Ġret": 947,
      "Ġ%": 948,
      "Ġbr": 949,
      "Ġwhere": 950,
      "Ġwould": 951,
      "##ily": 952,
      "##ral": 953,
      "Ġagain": 954,
      "Ġform": 955,
      "Ġwill": 956,
      "Ġyears": 957,
      "Ġthro": 958,
      "##ans": 959,
      "##oth": 960,
      "##ident": 961,
      "Ġonly": 962,
      "Ġsome": 963,
      "Ġexp": 964,
      "Ġatt": 965,
      "Ġuniversity": 966,
      "Ġlater": 967,
      "##ince": 968,
      "##ween": 969,
      "Ġsa": 970,
      "Ġspec": 971,
      "Ġfam": 972,
      "Ġbetween": 973,
      "Ġimp": 974,
      "Ġ17": 975,
      "##olog": 976,
      "Ġseason": 977,
      "Ġmed": 978,
      "Ġthree": 979,
      "##ics": 980,
      "##ram": 981,
      "Ġsecond": 982,
      "Ġhigh": 983,
      "##ons": 984,
      "Ġhow": 985,
      "Ġcity": 986,
      "##rans": 987,
      "##ered": 988,
      "##form": 989,
      "##ick": 990,
      "Ġamerican": 991,
      "Ġstate": 992,
      "Ġgu": 993,
      "##ix": 994,
      "##ision": 995,
      "##ating": 996,
      "Ġrel": 997,
      "##che": 998,
      "Ġprov": 999,
      "Ġdec": 1000,
      "Ġdo": 1001,
      "Ġrele": 1002,
      "Ġfollow": 1003,
      "Ġ0": 1004,
      "Ġtrans": 1005,
      "##ict": 1006,
      "Ġthrough": 1007,
      "Ġli": 1008,
      "##ative": 1009,
      "Ġcolle": 1010,
      "Ġsouth": 1011,
      "##Ã©": 1012,
      "Ġrem": 1013,
      "Ġinst": 1014,
      "Ġrecord": 1015,
      "##ular": 1016,
      "Ġend": 1017,
      "Ġdef": 1018,
      "Ġfo": 1019,
      "##vern": 1020,
      "##ouse": 1021,
      "Ġmov": 1022,
      "##iel": 1023,
      "Ġgener": 1024,
      "Ġthen": 1025,
      "Ġ194": 1026,
      "Ġ10": 1027,
      "Ġmade": 1028,
      "Ġabout": 1029,
      "Ġhist": 1030,
      "Ġent": 1031,
      "Ġdire": 1032,
      "Ġborn": 1033,
      "Ġwhile": 1034,
      "##ins": 1035,
      "##ork": 1036,
      "##ys": 1037,
      "Ġnum": 1038,
      "##tern": 1039,
      "Ġgovern": 1040,
      "Ġthem": 1041,
      "Ġunited": 1042,
      "Ġair": 1043,
      "Ġnov": 1044,
      "##att": 1045,
      "Ġsm": 1046,
      "Ġpop": 1047,
      "##ale": 1048,
      "Ġsuch": 1049,
      "Ġter": 1050,
      "Ġnorth": 1051,
      "Ġinv": 1052,
      "##fore": 1053,
      "Ġused": 1054,
      "Ġknown": 1055,
      "Ġmet": 1056,
      "Ġsur": 1057,
      "##ual": 1058,
      "Ġsing": 1059,
      "##oci": 1060,
      "##ames": 1061,
      "Ġfour": 1062,
      "Ġday": 1063,
      "Ġcap": 1064,
      "##ities": 1065,
      "Ġcre": 1066,
      "##aus": 1067,
      "Ġalb": 1068,
      "Ġ195": 1069,
      "Ġlar": 1070,
      "Ġdep": 1071,
      "Ġthan": 1072,
      "Ġgroup": 1073,
      "##hn": 1074,
      "Ġ16": 1075,
      "##ier": 1076,
      "Ġjun": 1077,
      "Ġ15": 1078,
      "##ery": 1079,
      "##ived": 1080,
      "Ġwell": 1081,
      "##ron": 1082,
      "##ning": 1083,
      "Ġcall": 1084,
      "Ġop": 1085,
      "Ġgr": 1086,
      "##int": 1087,
      "##ball": 1088,
      "Ġstates": 1089,
      "Ġest": 1090,
      "Ġbecame": 1091,
      "##led": 1092,
      "##ific": 1093,
      "Ġsupp": 1094,
      "Ġset": 1095,
      "##az": 1096,
      "##ten": 1097,
      "##emb": 1098,
      "##air": 1099,
      "##der": 1100,
      "##ss": 1101,
      "Ġmany": 1102,
      "##til": 1103,
      "Ġfran": 1104,
      "##ife": 1105,
      "Ġbel": 1106,
      "Ġmod": 1107,
      "Ġbeing": 1108,
      "Ġcompan": 1109,
      "##ury": 1110,
      "Ġoper": 1111,
      "Ġarm": 1112,
      "Ġpos": 1113,
      "Ġincluding": 1114,
      "Ġlead": 1115,
      "##ined": 1116,
      "##ject": 1117,
      "Ġ12": 1118,
      "##velop": 1119,
      "Ġadd": 1120,
      "Ġpeop": 1121,
      "##ah": 1122,
      "Ġbefore": 1123,
      "ĠâĢĶ": 1124,
      "Ġthese": 1125,
      "Ġhouse": 1126,
      "Ġjan": 1127,
      "Ġbar": 1128,
      "Ġfl": 1129,
      "Ġboth": 1130,
      "Ġmain": 1131,
      "Ġann": 1132,
      "##ina": 1133,
      "Ġrev": 1134,
      "Ġge": 1135,
      "Ġgra": 1136,
      "##ik": 1137,
      "Ġappe": 1138,
      "##ather": 1139,
      "Ġel": 1140,
      "Ġdevelop": 1141,
      "Ġbl": 1142,
      "##iam": 1143,
      "##ood": 1144,
      "##ement": 1145,
      "Ġwrit": 1146,
      "Ġpeople": 1147,
      "##ute": 1148,
      "##ert": 1149,
      "Ġdr": 1150,
      "Ġste": 1151,
      "Ġshow": 1152,
      "Ġagainst": 1153,
      "##ley": 1154,
      "Ġjohn": 1155,
      "Ġsong": 1156,
      "##ved": 1157,
      "Ġseries": 1158,
      "##ctor": 1159,
      "##ines": 1160,
      "Ġmusic": 1161,
      "Ġintern": 1162,
      "Ġalbum": 1163,
      "##ank": 1164,
      "Ġconst": 1165,
      "##ern": 1166,
      "##ional": 1167,
      "Ġob": 1168,
      "##rict": 1169,
      "Ġ193": 1170,
      "Ġorig": 1171,
      "Ġmat": 1172,
      "##round": 1173,
      "##end": 1174,
      "Ġju": 1175,
      "Ġaut": 1176,
      "Ġsign": 1177,
      "Ġright": 1178,
      "##iew": 1179,
      "Ġown": 1180,
      "Ġger": 1181,
      "##ield": 1182,
      "Ġcommun": 1183,
      "Ġaward": 1184,
      "##ever": 1185,
      "##other": 1186,
      "##co": 1187,
      "##ann": 1188,
      "##ures": 1189,
      "Ġuntil": 1190,
      "##its": 1191,
      "##iver": 1192,
      "Ġsince": 1193,
      "Ġfamily": 1194,
      "##ise": 1195,
      "##ists": 1196,
      "Ġlong": 1197,
      "##ind": 1198,
      "##son": 1199,
      "##ired": 1200,
      "##0s": 1201,
      "Ġsever": 1202,
      "Ġ11": 1203,
      "Ġorigin": 1204,
      "Ġoffic": 1205,
      "Ġ202": 1206,
      "Ġcor": 1207,
      "##ature": 1208,
      "Ġhowever": 1209,
      "Ġbuild": 1210,
      "##ism": 1211,
      "Ġ00": 1212,
      "Ġpublic": 1213,
      "##urch": 1214,
      "Ġwest": 1215,
      "##cy": 1216,
      "##stem": 1217,
      "Ġprog": 1218,
      "##ural": 1219,
      "Ġrece": 1220,
      "Ġaug": 1221,
      "Ġprof": 1222,
      "Ġopen": 1223,
      "Ġdiv": 1224,
      "Ġoct": 1225,
      "Ġtown": 1226,
      "Ġnumber": 1227,
      "Ġsim": 1228,
      "##enn": 1229,
      "Ġsept": 1230,
      "Ġvar": 1231,
      "Ġback": 1232,
      "##ague": 1233,
      "##ock": 1234,
      "Ġgovernment": 1235,
      "##aw": 1236,
      "Ġgame": 1237,
      "Ġmarch": 1238,
      "Ġdesign": 1239,
      "Ġsystem": 1240,
      "Ġaust": 1241,
      "##uary": 1242,
      "Ġsw": 1243,
      "##amed": 1244,
      "Ġcour": 1245,
      "Ġseptember": 1246,
      "Ġbook": 1247,
      "Ġarea": 1248,
      "##illa": 1249,
      "Ġaugust": 1250,
      "Ġcro": 1251,
      "##ized": 1252,
      "##uro": 1253,
      "Ġcur": 1254,
      "Ġrun": 1255,
      "Ġ192": 1256,
      "##uss": 1257,
      "Ġplayed": 1258,
      "Ġchamp": 1259,
      "##ty": 1260,
      "Ġmil": 1261,
      "Ġreleased": 1262,
      "Ġ&": 1263,
      "Ġcompany": 1264,
      "Ġfoot": 1265,
      "Ġhar": 1266,
      "Ġbrit": 1267,
      "Ġname": 1268,
      "##ister": 1269,
      "Ġwom": 1270,
      "##ober": 1271,
      "Ġ14": 1272,
      "Ġclass": 1273,
      "Ġred": 1274,
      "Ġfollowing": 1275,
      "Ġold": 1276,
      "##ower": 1277,
      "Ġlaw": 1278,
      "Ġstart": 1279,
      "Ġlo": 1280,
      "Ġclub": 1281,
      "Ġformer": 1282,
      "Ġoctober": 1283,
      "Ġdistrict": 1284,
      "Ġ13": 1285,
      "Ġland": 1286,
      "Ġdif": 1287,
      "Ġpers": 1288,
      "##elf": 1289,
      "Ġleague": 1290,
      "Ġline": 1291,
      "##ars": 1292,
      "##ution": 1293,
      "Ġ191": 1294,
      "Ġcomple": 1295,
      "##ril": 1296,
      "Ġjanuary": 1297,
      "##ger": 1298,
      "Ġke": 1299,
      "Ġorgan": 1300,
      "Ġgerman": 1301,
      "Ġprodu": 1302,
      "Ġjune": 1303,
      "Ġinf": 1304,
      "Ġseveral": 1305,
      "##ives": 1306,
      "Ġcalled": 1307,
      "Ġhead": 1308,
      "Ġval": 1309,
      "Ġchild": 1310,
      "##ird": 1311,
      "Ġav": 1312,
      "Ġwon": 1313,
      "Ġdece": 1314,
      "Ġjuly": 1315,
      "##tend": 1316,
      "Ġdem": 1317,
      "Ġport": 1318,
      "Ġhel": 1319,
      "##ctions": 1320,
      "Ġmaj": 1321,
      "Ġearly": 1322,
      "Ġapril": 1323,
      "##ually": 1324,
      "Ġstr": 1325,
      "Ġcounty": 1326,
      "##ket": 1327,
      "Ġbased": 1328,
      "##ai": 1329,
      "##mber": 1330,
      "Ġir": 1331,
      "##ting": 1332,
      "Ġnovember": 1333,
      "Ġinternational": 1334,
      "Ġ000": 1335,
      "Ġking": 1336,
      "Ġcontin": 1337,
      "##ained": 1338,
      "Ġmill": 1339,
      "Ġconc": 1340,
      "##ract": 1341,
      "Ġgeneral": 1342,
      "##ner": 1343,
      "Ġreturn": 1344,
      "##ulation": 1345,
      "Ġsame": 1346,
      "Ġche": 1347,
      "Ġdecember": 1348,
      "##min": 1349,
      "Ġyork": 1350,
      "##rol": 1351,
      "Ġbus": 1352,
      "##ause": 1353,
      "##ful": 1354,
      "Ġsupport": 1355,
      "##arch": 1356,
      "##ues": 1357,
      "##ash": 1358,
      "##lish": 1359,
      "Ġstre": 1360,
      "Ġ=": 1361,
      "##ission": 1362,
      "##ull": 1363,
      "##osed": 1364,
      "Ġeach": 1365,
      "##ried": 1366,
      "Ġcr": 1367,
      "Ġmember": 1368,
      "Ġeast": 1369,
      "Ġany": 1370,
      "Ġtit": 1371,
      "##inc": 1372,
      "Ġpolit": 1373,
      "##els": 1374,
      "##ital": 1375,
      "Ġnear": 1376,
      "##uced": 1377,
      "##iet": 1378,
      "Ġprogram": 1379,
      "Ġuse": 1380,
      "Ġeuro": 1381,
      "##ange": 1382,
      "Ġmajor": 1383,
      "Ġadv": 1384,
      "##aking": 1385,
      "Ġins": 1386,
      "Ġpass": 1387,
      "##ble": 1388,
      "Ġty": 1389,
      "##ially": 1390,
      "Ġpat": 1391,
      "Ġband": 1392,
      "Ġplace": 1393,
      "##get": 1394,
      "Ġmid": 1395,
      "##uch": 1396,
      "Ġcal": 1397,
      "##ior": 1398,
      "Ġpresident": 1399,
      "Ġcamp": 1400,
      "##ium": 1401,
      "Ġlit": 1402,
      "Ġhome": 1403,
      "Ġvilla": 1404,
      "Ġever": 1405,
      "Ġnow": 1406,
      "Ġalong": 1407,
      "Ġep": 1408,
      "Ġmo": 1409,
      "Ġprom": 1410,
      "Ġbest": 1411,
      "##xt": 1412,
      "Ġprofess": 1413,
      "##ised": 1414,
      "Ġeff": 1415,
      "##ling": 1416,
      "Ġfeb": 1417,
      "##ilt": 1418,
      "##ica": 1419,
      "##ology": 1420,
      "##ants": 1421,
      "Ġfootball": 1422,
      "##ible": 1423,
      "##cept": 1424,
      "Ġassoci": 1425,
      "##by": 1426,
      "Ġra": 1427,
      "##ient": 1428,
      "##bo": 1429,
      "Ġcare": 1430,
      "Ġbra": 1431,
      "Ġstation": 1432,
      "##ps": 1433,
      "Ġsoc": 1434,
      "Ġchurch": 1435,
      "##ruary": 1436,
      "Ġif": 1437,
      "Ġpartic": 1438,
      "Ġfebruary": 1439,
      "Ġjust": 1440,
      "##ided": 1441,
      "Ġcoun": 1442,
      "Ġchampions": 1443,
      "Ġbegan": 1444,
      "Ġbas": 1445,
      "##iving": 1446,
      "Ġrepres": 1447,
      "##eter": 1448,
      "##ments": 1449,
      "##ged": 1450,
      "Ġchr": 1451,
      "Ġlocal": 1452,
      "Ġcompet": 1453,
      "Ġtre": 1454,
      "##ared": 1455,
      "Ġprev": 1456,
      "Ġbla": 1457,
      "Ġocc": 1458,
      "Ġes": 1459,
      "Ġleg": 1460,
      "##ility": 1461,
      "Ġsmall": 1462,
      "##ued": 1463,
      "Ġmag": 1464,
      "Ġdown": 1465,
      "Ġdid": 1466,
      "Ġdra": 1467,
      "Ġbre": 1468,
      "Ġparty": 1469,
      "Ġcollege": 1470,
      "Ġaustral": 1471,
      "Ġbritish": 1472,
      "Ġdel": 1473,
      "Ġlike": 1474,
      "Ġlife": 1475,
      "Ġcentury": 1476,
      "Ġheld": 1477,
      "##ime": 1478,
      "##por": 1479,
      "##au": 1480,
      "Ġrom": 1481,
      "Ġmemb": 1482,
      "Ġconf": 1483,
      "Ġlocated": 1484,
      "Ġarch": 1485,
      "Ġ2010": 1486,
      "ĠâĢĻ": 1487,
      "Ġdue": 1488,
      "##ove": 1489,
      "##ccess": 1490,
      "Ġ$": 1491,
      "##ically": 1492,
      "Ġcla": 1493,
      "##ales": 1494,
      "Ġ25": 1495,
      "Ġnamed": 1496,
      "##ec": 1497,
      "##rent": 1498,
      "##bert": 1499,
      "Ġleft": 1500,
      "##ark": 1501,
      "Ġdiffer": 1502,
      "##ices": 1503,
      "Ġrad": 1504,
      "Ġfinal": 1505,
      "Ġdesc": 1506,
      "##ek": 1507,
      "Ġage": 1508,
      "Ġreport": 1509,
      "Ġvol": 1510,
      "Ġsix": 1511,
      "Ġlist": 1512,
      "Ġhistor": 1513,
      "##ator": 1514,
      "Ġeurope": 1515,
      "Ġestab": 1516,
      "##con": 1517,
      "Ġmembers": 1518,
      "Ġwomen": 1519,
      "##port": 1520,
      "Ġmanag": 1521,
      "Ġref": 1522,
      "Ġpri": 1523,
      "Ġx": 1524,
      "Ġaround": 1525,
      "##pend": 1526,
      "Ġpark": 1527,
      "Ġrepresent": 1528,
      "Ġevent": 1529,
      "Ġpost": 1530,
      "Ġje": 1531,
      "Ġ30": 1532,
      "Ġriver": 1533,
      "Ġson": 1534,
      "Ġsen": 1535,
      "Ġeduc": 1536,
      "##ms": 1537,
      "Ġext": 1538,
      "##ogra": 1539,
      "Ġappro": 1540,
      "Ġ2011": 1541,
      "Ġyou": 1542,
      "Ġtook": 1543,
      "Ġhum": 1544,
      "Ġii": 1545,
      "Ġtop": 1546,
      "##anc": 1547,
      "Ġlast": 1548,
      "##gin": 1549,
      "##ott": 1550,
      "Ġbecause": 1551,
      "##yl": 1552,
      "##aving": 1553,
      "Ġsk": 1554,
      "Ġroad": 1555,
      "##ae": 1556,
      "##gest": 1557,
      "##ham": 1558,
      "##ets": 1559,
      "##ival": 1560,
      "##hes": 1561,
      "##ene": 1562,
      "##chn": 1563,
      "Ġisland": 1564,
      "Ġgreat": 1565,
      "Ġservice": 1566,
      "Ġserved": 1567,
      "##ience": 1568,
      "Ġfar": 1569,
      "Ġhistory": 1570,
      "Ġfore": 1571,
      "Ġfive": 1572,
      "Ġer": 1573,
      "##eng": 1574,
      "Ġcould": 1575,
      "Ġbuilt": 1576,
      "Ġpopulation": 1577,
      "Ġsuccess": 1578,
      "##ats": 1579,
      "Ġcharact": 1580,
      "Ġ2008": 1581,
      "Ġrest": 1582,
      "##cess": 1583,
      "Ġvers": 1584,
      "##ane": 1585,
      "Ġ2012": 1586,
      "Ġphil": 1587,
      "Ġthird": 1588,
      "Ġrail": 1589,
      "##na": 1590,
      "##let": 1591,
      "##erv": 1592,
      "Ġdeb": 1593,
      "Ġdeath": 1594,
      "Ġanother": 1595,
      "Ġtele": 1596,
      "Ġchampionship": 1597,
      "Ġmen": 1598,
      "Ġ2009": 1599,
      "Ġcanad": 1600,
      "Ġauth": 1601,
      "Ġmount": 1602,
      "Ġshort": 1603,
      "Ġchrist": 1604,
      "##ored": 1605,
      "Ġcond": 1606,
      "Ġsingle": 1607,
      "Ġwater": 1608,
      "Ġlos": 1609,
      "Ġreceived": 1610,
      "##ze": 1611,
      "Ġbuilding": 1612,
      "Ġbatt": 1613,
      "Ġtri": 1614,
      "##me": 1615,
      "Ġorder": 1616,
      "Ġvis": 1617,
      "##ains": 1618,
      "Ġgames": 1619,
      "##tle": 1620,
      "Ġstand": 1621,
      "Ġpresent": 1622,
      "Ġwithin": 1623,
      "Ġ190": 1624,
      "Ġpublished": 1625,
      "##ison": 1626,
      "Ġsum": 1627,
      "##sh": 1628,
      "Ġ2006": 1629,
      "Ġpa": 1630,
      "Ġ2014": 1631,
      "Ġ2007": 1632,
      "Ġway": 1633,
      "Ġfac": 1634,
      "Ġ2013": 1635,
      "Ġ21": 1636,
      "##ep": 1637,
      "Ġang": 1638,
      "Ġant": 1639,
      "##ink": 1640,
      "Ġhand": 1641,
      "##ately": 1642,
      "Ġaccord": 1643,
      "##ians": 1644,
      "Ġmy": 1645,
      "Ġgeor": 1646,
      "Ġsol": 1647,
      "##ret": 1648,
      "Ġrese": 1649,
      "##augh": 1650,
      "##ony": 1651,
      "Ġtechn": 1652,
      "Ġkm": 1653,
      "Ġemp": 1654,
      "Ġpower": 1655,
      "Ġstar": 1656,
      "Ġperson": 1657,
      "Ġ2015": 1658,
      "##que": 1659,
      "##ality": 1660,
      "##Ã¡": 1661,
      "Ġblack": 1662,
      "Ġmer": 1663,
      "Ġyoun": 1664,
      "##iness": 1665,
      "##hen": 1666,
      "##ode": 1667,
      "Ġaddition": 1668,
      "##ven": 1669,
      "Ġfre": 1670,
      "Ġdied": 1671,
      "Ġ24": 1672,
      "Ġsaid": 1673,
      "Ġ2016": 1674,
      "Ġlab": 1675,
      "Ġvillage": 1676,
      "##ata": 1677,
      "##apan": 1678,
      "##ler": 1679,
      "##ring": 1680,
      "##ified": 1681,
      "##yn": 1682,
      "##ster": 1683,
      "Ġsl": 1684,
      "Ġlarge": 1685,
      "Ġarmy": 1686,
      "Ġchildren": 1687,
      "Ġhal": 1688,
      "##ently": 1689,
      "##atic": 1690,
      "##rench": 1691,
      "##ien": 1692,
      "Ġtro": 1693,
      "##bs": 1694,
      "##ille": 1695,
      "Ġdepart": 1696,
      "##alth": 1697,
      "##aster": 1698,
      "Ġwilliam": 1699,
      "Ġvict": 1700,
      "##ford": 1701,
      "Ġnet": 1702,
      "##ides": 1703,
      "Ġjapan": 1704,
      "Ġlond": 1705,
      "##ung": 1706,
      "Ġrequ": 1707,
      "##ages": 1708,
      "##pect": 1709,
      "##ining": 1710,
      "##ety": 1711,
      "##cil": 1712,
      "##br": 1713,
      "Ġamong": 1714,
      "##yal": 1715,
      "Ġ189": 1716,
      "Ġalth": 1717,
      "Ġconsid": 1718,
      "Ġaccording": 1719,
      "Ġlondon": 1720,
      "Ġenglish": 1721,
      "Ġthough": 1722,
      "Ġlang": 1723,
      "Ġproject": 1724,
      "Ġspecies": 1725,
      "##itions": 1726,
      "Ġtrad": 1727,
      "Ġcrit": 1728,
      "Ġalthough": 1729,
      "Ġfield": 1730,
      "Ġcountry": 1731,
      "Ġnort": 1732,
      "##omin": 1733,
      "Ġpress": 1734,
      "Ġdescrib": 1735,
      "##ese": 1736,
      "Ġiss": 1737,
      "Ġfrench": 1738,
      "Ġcurrent": 1739,
      "##ches": 1740,
      "Ġdisc": 1741,
      "Ġcourt": 1742,
      "Ġ2017": 1743,
      "Ġdivision": 1744,
      "Ġsuper": 1745,
      "Ġ22": 1746,
      "Ġinstit": 1747,
      "##ief": 1748,
      "##iod": 1749,
      "Ġ2018": 1750,
      "Ġequ": 1751,
      "Ġsan": 1752,
      "##hing": 1753,
      "##bor": 1754,
      "##ention": 1755,
      "Ġsqu": 1756,
      "Ġallow": 1757,
      "Ġmilit": 1758,
      "##ograph": 1759,
      "Ġkill": 1760,
      "Ġincluded": 1761,
      "Ġled": 1762,
      "##idge": 1763,
      "Ġthose": 1764,
      "Ġlevel": 1765,
      "Ġcentral": 1766,
      "Ġopp": 1767,
      "Ġgl": 1768,
      "##gy": 1769,
      "Ġtimes": 1770,
      "##estern": 1771,
      "##ively": 1772,
      "##iven": 1773,
      "Ġside": 1774,
      "Ġcult": 1775,
      "Ġeven": 1776,
      "Ġstill": 1777,
      "Ġtem": 1778,
      "Ġresult": 1779,
      "Ġwhite": 1780,
      "Ġruss": 1781,
      "Ġnon": 1782,
      "Ġcenter": 1783,
      "Ġannoun": 1784,
      "##tal": 1785,
      "Ġ2019": 1786,
      "##ards": 1787,
      "Ġbusiness": 1788,
      "Ġspecial": 1789,
      "Ġhol": 1790,
      "Ġfather": 1791,
      "##ization": 1792,
      "Ġcommon": 1793,
      "Ġauthor": 1794,
      "Ġexper": 1795,
      "Ġinde": 1796,
      "##ges": 1797,
      "##ruct": 1798,
      "Ġcontrol": 1799,
      "##ple": 1800,
      "Ġcommand": 1801,
      "Ġwhat": 1802,
      "Ġdifferent": 1803,
      "Ġperform": 1804,
      "Ġsoci": 1805,
      "##med": 1806,
      "##eder": 1807,
      "##be": 1808,
      "##ering": 1809,
      "Ġturn": 1810,
      "##uck": 1811,
      "Ġdevelopment": 1812,
      "Ġcouncil": 1813,
      "Ġmonth": 1814,
      "##omet": 1815,
      "Ġincre": 1816,
      "Ġresp": 1817,
      "Ġelect": 1818,
      "##rod": 1819,
      "Ġaff": 1820,
      "Ġnews": 1821,
      "Ġ23": 1822,
      "Ġafric": 1823,
      "Ġtak": 1824,
      "Ġvery": 1825,
      "Ġperiod": 1826,
      "Ġ2005": 1827,
      "Ġsocial": 1828,
      "Ġinclude": 1829,
      "##bur": 1830,
      "Ġevery": 1831,
      "Ġvi": 1832,
      "Ġmillion": 1833,
      "Ġdav": 1834,
      "##ves": 1835,
      "Ġresearch": 1836,
      "##ured": 1837,
      "Ġalign": 1838,
      "Ġwal": 1839,
      "Ġpal": 1840,
      "Ġround": 1841,
      "Ġcommunity": 1842,
      "##ody": 1843,
      "Ġstat": 1844,
      "##day": 1845,
      "Ġlate": 1846,
      "##riend": 1847,
      "Ġengine": 1848,
      "Ġoriginal": 1849,
      "Ġcast": 1850,
      "Ġcapt": 1851,
      "##ped": 1852,
      "Ġinit": 1853,
      "Ġship": 1854,
      "Ġoften": 1855,
      "Ġ188": 1856,
      "Ġmoved": 1857,
      "##tended": 1858,
      "##ino": 1859,
      "Ġgrand": 1860,
      "Ġappear": 1861,
      "Ġmake": 1862,
      "Ġstreet": 1863,
      "Ġsal": 1864,
      "Ġ2020": 1865,
      "##loy": 1866,
      "##lished": 1867,
      "Ġsold": 1868,
      "##vision": 1869,
      "##ana": 1870,
      "Ġdirector": 1871,
      "Ġplayer": 1872,
      "Ġcareer": 1873,
      "Ġmor": 1874,
      "##ration": 1875,
      "Ġbill": 1876,
      "Ġital": 1877,
      "Ġlangu": 1878,
      "Ġprevious": 1879,
      "Ġfur": 1880,
      "Ġconv": 1881,
      "Ġlim": 1882,
      "##lic": 1883,
      "Ġdon": 1884,
      "Ġrock": 1885,
      "Ġbroad": 1886,
      "##ness": 1887,
      "##adem": 1888,
      "Ġlat": 1889,
      "Ġeas": 1890,
      "Ġ100": 1891,
      "Ġmiss": 1892,
      "Ġbur": 1893,
      "##ara": 1894,
      "Ġgrad": 1895,
      "##to": 1896,
      "##inted": 1897,
      "Ġhy": 1898,
      "Ġdet": 1899,
      "Ġgold": 1900,
      "Ġcommit": 1901,
      "Ġmal": 1902,
      "Ġ26": 1903,
      "##ries": 1904,
      "Ġtitle": 1905,
      "Ġcle": 1906,
      "##ize": 1907,
      "##ca": 1908,
      "##urs": 1909,
      "Ġmun": 1910,
      "##ds": 1911,
      "##mp": 1912,
      "Ġ2004": 1913,
      "Ġcharacter": 1914,
      "Ġjour": 1915,
      "##ency": 1916,
      "Ġce": 1917,
      "##ument": 1918,
      "##ax": 1919,
      "Ġmuch": 1920,
      "Ġprim": 1921,
      "Ġworks": 1922,
      "##ney": 1923,
      "Ġ27": 1924,
      "Ġ28": 1925,
      "Ġstory": 1926,
      "Ġchang": 1927,
      "Ġcup": 1928,
      "Ġprote": 1929,
      "Ġposs": 1930,
      "Ġimport": 1931,
      "Ġvot": 1932,
      "Ġacadem": 1933,
      "Ġepis": 1934,
      "Ġconstru": 1935,
      "##line": 1936,
      "Ġestablished": 1937,
      "Ġnav": 1938,
      "Ġwestern": 1939,
      "##af": 1940,
      "Ġmilitary": 1941,
      "##ched": 1942,
      "##ribut": 1943,
      "Ġfact": 1944,
      "##osp": 1945,
      "Ġ2000": 1946,
      "Ġrole": 1947,
      "##uk": 1948,
      "Ġhon": 1949,
      "Ġprop": 1950,
      "Ġgood": 1951,
      "Ġfem": 1952,
      "Ġcat": 1953,
      "Ġbrother": 1954,
      "##mon": 1955,
      "Ġpoint": 1956,
      "Ġho": 1957,
      "Ġrepla": 1958,
      "##cl": 1959,
      "Ġhaving": 1960,
      "Ġve": 1961,
      "Ġ186": 1962,
      "Ġber": 1963,
      "Ġpain": 1964,
      "Ġecon": 1965,
      "Ġroyal": 1966,
      "Ġsit": 1967,
      "Ġdefe": 1968,
      "Ġeffect": 1969,
      "Ġhig": 1970,
      "Ġindust": 1971,
      "Ġregion": 1972,
      "##par": 1973,
      "Ġannounced": 1974,
      "Ġeducation": 1975,
      "Ġeconom": 1976,
      "Ġtotal": 1977,
      "Ġunion": 1978,
      "Ġvir": 1979,
      "Ġnext": 1980,
      "Ġplan": 1981,
      "Ġcame": 1982,
      "Ġrepubl": 1983,
      "Ġtest": 1984,
      "Ġciv": 1985,
      "Ġfun": 1986,
      "##yle": 1987,
      "##ma": 1988,
      "Ġactiv": 1989,
      "Ġadmin": 1990,
      "Ġelection": 1991,
      "Ġfeature": 1992,
      "##ints": 1993,
      "##ones": 1994,
      "##Ã³": 1995,
      "Ġwent": 1996,
      "Ġcover": 1997,
      "Ġoffice": 1998,
      "##sk": 1999,
      "Ġrac": 2000,
      "##lu": 2001,
      "Ġuk": 2002,
      "Ġlight": 2003,
      "##side": 2004,
      "Ġusing": 2005,
      "Ġstarted": 2006,
      "Ġvarious": 2007,
      "Ġdu": 2008,
      "##work": 2009,
      "Ġpolitical": 2010,
      "Ġdev": 2011,
      "Ġassociation": 2012,
      "Ġtelevision": 2013,
      "##ilar": 2014,
      "Ġfriend": 2015,
      "##orts": 2016,
      "Ġreal": 2017,
      "Ġspace": 2018,
      "Ġappo": 2019,
      "##hel": 2020,
      "Ġcam": 2021,
      "Ġrich": 2022,
      "Ġmot": 2023,
      "Ġ187": 2024,
      "Ġinvol": 2025,
      "Ġhall": 2026,
      "Ġren": 2027,
      "Ġbeh": 2028,
      "Ġprocess": 2029,
      "Ġindian": 2030,
      "##rop": 2031,
      "Ġyoung": 2032,
      "##ases": 2033,
      "##oph": 2034,
      "Ġsociety": 2035,
      "Ġpromot": 2036,
      "##go": 2037,
      "##ady": 2038,
      "Ġcross": 2039,
      "Ġfree": 2040,
      "Ġinform": 2041,
      "Ġproduced": 2042,
      "Ġtake": 2043,
      "Ġgiven": 2044,
      "Ġbi": 2045,
      "Ġmich": 2046,
      "Ġrefer": 2047,
      "Ġdepartment": 2048,
      "Ġreview": 2049,
      "##ald": 2050,
      "Ġfeat": 2051,
      "Ġhen": 2052,
      "Ġengland": 2053,
      "Ġsil": 2054,
      "Ġvide": 2055,
      "Ġboard": 2056,
      "Ġque": 2057,
      "##nal": 2058,
      "Ġmarried": 2059,
      "Ġ29": 2060,
      "Ġhuman": 2061,
      "Ġ2003": 2062,
      "##mit": 2063,
      "##ett": 2064,
      "Ġperfor": 2065,
      "Ġforce": 2066,
      "Ġdirect": 2067,
      "Ġproduction": 2068,
      "##hern": 2069,
      "Ġsent": 2070,
      "Ġstudents": 2071,
      "##ying": 2072,
      "##cast": 2073,
      "##ots": 2074,
      "Ġten": 2075,
      "Ġbecome": 2076,
      "##rote": 2077,
      "##lin": 2078,
      "Ġinvest": 2079,
      "Ġfurther": 2080,
      "##empt": 2081,
      "##ament": 2082,
      "Ġsimilar": 2083,
      "Ġhost": 2084,
      "Ġwritten": 2085,
      "Ġclaim": 2086,
      "Ġfeder": 2087,
      "Ġcir": 2088,
      "Ġcommission": 2089,
      "Ġmult": 2090,
      "Ġtur": 2091,
      "Ġdebut": 2092,
      "Ġworked": 2093,
      "##aren": 2094,
      "Ġfull": 2095,
      "Ġill": 2096,
      "Ġradio": 2097,
      "##app": 2098,
      "Ġindepend": 2099,
      "Ġmark": 2100,
      "Ġmuse": 2101,
      "Ġjoined": 2102,
      "Ġnat": 2103,
      "Ġfew": 2104,
      "Ġdisp": 2105,
      "##li": 2106,
      "##ha": 2107,
      "Ġdou": 2108,
      "Ġcreated": 2109,
      "Ġmass": 2110,
      "Ġbase": 2111,
      "Ġder": 2112,
      "Ġcy": 2113,
      "Ġ2002": 2114,
      "Ġservices": 2115,
      "Ġcomb": 2116,
      "Ġ2001": 2117,
      "##self": 2118,
      "##xim": 2119,
      "Ġhealth": 2120,
      "Ġjud": 2121,
      "##gr": 2122,
      "Ġdescribed": 2123,
      "Ġversion": 2124,
      "##ached": 2125,
      "Ġsite": 2126,
      "Ġvo": 2127,
      "##Ã¼": 2128,
      "Ġtour": 2129,
      "##wards": 2130,
      "Ġ]": 2131,
      "Ġ2021": 2132,
      "##ls": 2133,
      "Ġlow": 2134,
      "Ġofficial": 2135,
      "Ġneed": 2136,
      "##ront": 2137,
      "Ġwithout": 2138,
      "Ġwrote": 2139,
      "##ob": 2140,
      "Ġcivil": 2141,
      "Ġnorthern": 2142,
      "Ġadminist": 2143,
      "Ġpopular": 2144,
      "Ġ[": 2145,
      "Ġden": 2146,
      "##ories": 2147,
      "##ays": 2148,
      "Ġmodern": 2149,
      "Ġfire": 2150,
      "##ÃŃ": 2151,
      "Ġreturned": 2152,
      "##aining": 2153,
      "Ġmatch": 2154,
      "Ġfund": 2155,
      "Ġhalf": 2156,
      "Ġfounded": 2157,
      "Ġroman": 2158,
      "Ġlost": 2159,
      "Ġminister": 2160,
      "##ey": 2161,
      "Ġjames": 2162,
      "Ġposition": 2163,
      "##ship": 2164,
      "Ġperforman": 2165,
      "Ġexamp": 2166,
      "Ġmem": 2167,
      "Ġmc": 2168,
      "Ġeuropean": 2169,
      "Ġsee": 2170,
      "Ġdays": 2171,
      "Ġpract": 2172,
      "Ġmuseum": 2173,
      "Ġintrod": 2174,
      "Ġthom": 2175,
      "##ws": 2176,
      "Ġhold": 2177,
      "##ript": 2178,
      "Ġindia": 2179,
      "Ġrailway": 2180,
      "Ġprofessional": 2181,
      "Ġlive": 2182,
      "Ġmur": 2183,
      "Ġpriv": 2184,
      "Ġfr": 2185,
      "##ico": 2186,
      "Ġfrance": 2187,
      "##thern": 2188,
      "Ġaustralia": 2189,
      "##ising": 2190,
      "##itor": 2191,
      "Ġgreen": 2192,
      "Ġ31": 2193,
      "Ġchief": 2194,
      "Ġmarket": 2195,
      "Ġattack": 2196,
      "##gether": 2197,
      "Ġgeorge": 2198,
      "Ġtogether": 2199,
      "##icip": 2200,
      "##ivid": 2201,
      "Ġsouthern": 2202,
      "Ġhill": 2203,
      "Ġbal": 2204,
      "##ius": 2205,
      "Ġarg": 2206,
      "Ġcirc": 2207,
      "Ġlou": 2208,
      "Ġnight": 2209,
      "##umb": 2210,
      "Ġlib": 2211,
      "Ġconn": 2212,
      "##ertain": 2213,
      "Ġdam": 2214,
      "##iment": 2215,
      "Ġident": 2216,
      "##vers": 2217,
      "##rest": 2218,
      "Ġview": 2219,
      "Ġaver": 2220,
      "Ġver": 2221,
      "Ġwood": 2222,
      "Ġelected": 2223,
      "Ġparticip": 2224,
      "Ġsecret": 2225,
      "##sequ": 2226,
      "##aff": 2227,
      "Ġbattle": 2228,
      "Ġdaugh": 2229,
      "Ġsummer": 2230,
      "Ġweek": 2231,
      "Ġcalif": 2232,
      "Ġsele": 2233,
      "Ġmart": 2234,
      "Ġdest": 2235,
      "Ġinterest": 2236,
      "##ming": 2237,
      "Ġ50": 2238,
      "Ġlanguage": 2239,
      "##ville": 2240,
      "Ġamerica": 2241,
      "Ġcaliforn": 2242,
      "Ġfest": 2243,
      "##ops": 2244,
      "##ya": 2245,
      "Ġindivid": 2246,
      "##raft": 2247,
      "Ġattempt": 2248,
      "Ġfall": 2249,
      "Ġale": 2250,
      "Ġrecorded": 2251,
      "Ġproper": 2252,
      "Ġcontinued": 2253,
      "Ġrace": 2254,
      "Ġham": 2255,
      "##hib": 2256,
      "Ġcase": 2257,
      "Ġcalifornia": 2258,
      "##hold": 2259,
      "Ġpet": 2260,
      "Ġvideo": 2261,
      "Ġbank": 2262,
      "Ġmother": 2263,
      "Ġless": 2264,
      "Ġjournal": 2265,
      "Ġprem": 2266,
      "##ama": 2267,
      "Ġmaking": 2268,
      "Ġprinc": 2269,
      "Ġkh": 2270,
      "Ġbig": 2271,
      "Ġnever": 2272,
      "##ogn": 2273,
      "##ka": 2274,
      "ĠâĢľ": 2275,
      "Ġmac": 2276,
      "Ġfight": 2277,
      "##imin": 2278,
      "Ġget": 2279,
      "Ġtal": 2280,
      "Ġopened": 2281,
      "Ġtradition": 2282,
      "ĠâĢĿ": 2283,
      "Ġdan": 2284,
      "##ological": 2285,
      "Ġpolice": 2286,
      "##uel": 2287,
      "Ġord": 2288,
      "Ġcost": 2289,
      "##ellow": 2290,
      "Ġtrack": 2291,
      "Ġconsidered": 2292,
      "Ġur": 2293,
      "Ġ185": 2294,
      "Ġmunicip": 2295,
      "Ġworking": 2296,
      "Ġphys": 2297,
      "Ġdavid": 2298,
      "Ġassist": 2299,
      "Ġmeet": 2300,
      "##Ã¶": 2301,
      "Ġscience": 2302,
      "Ġwife": 2303,
      "##olution": 2304,
      "Ġcanada": 2305,
      "Ġconstit": 2306,
      "##omb": 2307,
      "##akes": 2308,
      "Ġground": 2309,
      "Ġgir": 2310,
      "Ġcop": 2311,
      "Ġgradu": 2312,
      "Ġexec": 2313,
      "Ġsat": 2314,
      "Ġinflu": 2315,
      "Ġcommitte": 2316,
      "Ġ1999": 2317,
      "##rie": 2318,
      "Ġsigned": 2319,
      "Ġhous": 2320,
      "Ġappointed": 2321,
      "##dle": 2322,
      "Ġcaus": 2323,
      "Ġhelp": 2324,
      "Ġproduc": 2325,
      "Ġsomet": 2326,
      "Ġeight": 2327,
      "Ġstruct": 2328,
      "Ġpaul": 2329,
      "Ġonce": 2330,
      "Ġsound": 2331,
      "##key": 2332,
      "Ġfront": 2333,
      "Ġsem": 2334,
      "##used": 2335,
      "Ġprot": 2336,
      "Ġcoach": 2337,
      "Ġpur": 2338,
      "Ġdeg": 2339,
      "##yed": 2340,
      "Ġlove": 2341,
      "Ġfa": 2342,
      "Ġcoast": 2343,
      "Ġsn": 2344,
      "Ġcong": 2345,
      "Ġliter": 2346,
      "Ġca": 2347,
      "##field": 2348,
      "Ġoly": 2349,
      "##dom": 2350,
      "Ġforces": 2351,
      "##ross": 2352,
      "Ġdoc": 2353,
      "Ġrecords": 2354,
      "Ġpoints": 2355,
      "Ġimportant": 2356,
      "Ġliving": 2357,
      "Ġread": 2358,
      "Ġparticular": 2359,
      "Ġpap": 2360,
      "##reek": 2361,
      "##acks": 2362,
      "##cer": 2363,
      "Ġet": 2364,
      "Ġothers": 2365,
      "Ġlaun": 2366,
      "Ġrelations": 2367,
      "Ġlittle": 2368,
      "Ġdata": 2369,
      "Ġteams": 2370,
      "Ġappeared": 2371,
      "Ġq": 2372,
      "Ġoriginally": 2373,
      "Ġtyp": 2374,
      "Ġolymp": 2375,
      "Ġmater": 2376,
      "Ġformed": 2377,
      "##ll": 2378,
      "Ġsug": 2379,
      "Ġbody": 2380,
      "Ġarr": 2381,
      "Ġbegin": 2382,
      "##ense": 2383,
      "Ġsam": 2384,
      "Ġterm": 2385,
      "##ipp": 2386,
      "##ael": 2387,
      "Ġhot": 2388,
      "Ġshould": 2389,
      "Ġdi": 2390,
      "##ned": 2391,
      "##cher": 2392,
      "Ġrelease": 2393,
      "Ġpan": 2394,
      "##ances": 2395,
      "Ġsuff": 2396,
      "Ġhor": 2397,
      "Ġhit": 2398,
      "Ġheav": 2399,
      "Ġdesp": 2400,
      "Ġareas": 2401,
      "##ta": 2402,
      "Ġfail": 2403,
      "Ġben": 2404,
      "Ġwat": 2405,
      "Ġtv": 2406,
      "Ġreported": 2407,
      "Ġeastern": 2408,
      "Ġrobert": 2409,
      "Ġ40": 2410,
      "Ġdeveloped": 2411,
      "##com": 2412,
      "Ġseven": 2413,
      "Ġflo": 2414,
      "##aign": 2415,
      "##den": 2416,
      "Ġparl": 2417,
      "Ġanim": 2418,
      "Ġdemoc": 2419,
      "Ġdoes": 2420,
      "##burg": 2421,
      "##ership": 2422,
      "Ġfif": 2423,
      "Ġfort": 2424,
      "Ġplaying": 2425,
      "Ġpra": 2426,
      "Ġaustralian": 2427,
      "Ġstrong": 2428,
      "Ġexist": 2429,
      "##rew": 2430,
      "Ġmel": 2431,
      "##hod": 2432,
      "Ġavail": 2433,
      "##utes": 2434,
      "Ġbay": 2435,
      "Ġmad": 2436,
      "##idence": 2437,
      "Ġinformation": 2438,
      "Ġ1998": 2439,
      "Ġemploy": 2440,
      "Ġcommittee": 2441,
      "Ġphot": 2442,
      "Ġupon": 2443,
      "Ġconstruction": 2444,
      "Ġaud": 2445,
      "Ġtor": 2446,
      "##iding": 2447,
      "Ġcampaign": 2448,
      "Ġcentre": 2449,
      "##ither": 2450,
      "##eth": 2451,
      "Ġgermany": 2452,
      "Ġput": 2453,
      "##craft": 2454,
      "Ġhosp": 2455,
      "Ġlake": 2456,
      "##ead": 2457,
      "##cks": 2458,
      "Ġsea": 2459,
      "Ġgun": 2460,
      "Ġsus": 2461,
      "##ably": 2462,
      "Ġstyle": 2463,
      "Ġgar": 2464,
      "Ġpen": 2465,
      "##cover": 2466,
      "##ference": 2467,
      "Ġmary": 2468,
      "Ġru": 2469,
      "Ġrul": 2470,
      "Ġrank": 2471,
      "Ġcou": 2472,
      "Ġdut": 2473,
      "##ades": 2474,
      "Ġparliam": 2475,
      "Ġbelie": 2476,
      "Ġide": 2477,
      "Ġtheat": 2478,
      "##ishing": 2479,
      "##ences": 2480,
      "Ġacross": 2481,
      "##itive": 2482,
      "Ġexample": 2483,
      "Ġhimself": 2484,
      "Ġgrow": 2485,
      "Ġobs": 2486,
      "Ġinstitute": 2487,
      "Ġdaughter": 2488,
      "Ġaverage": 2489,
      "Ġze": 2490,
      "Ġtourn": 2491,
      "Ġtom": 2492,
      "Ġgod": 2493,
      "Ġtraining": 2494,
      "Ġmagaz": 2495,
      "Ġepisode": 2496,
      "Ġran": 2497,
      "##ators": 2498,
      "Ġparliament": 2499,
      "Ġfoc": 2500,
      "Ġartist": 2501,
      "Ġspan": 2502,
      "Ġsongs": 2503,
      "Ġmust": 2504,
      "##itect": 2505,
      "Ġpit": 2506,
      "Ġchina": 2507,
      "##wood": 2508,
      "Ġmedia": 2509,
      "Ġarchitect": 2510,
      "Ġrob": 2511,
      "##oss": 2512,
      "##row": 2513,
      "##ours": 2514,
      "Ġball": 2515,
      "##ago": 2516,
      "Ġrecogn": 2517,
      "Ġhom": 2518,
      "Ġwind": 2519,
      "Ġsour": 2520,
      "Ġexpress": 2521,
      "Ġrelig": 2522,
      "Ġbecom": 2523,
      "Ġtex": 2524,
      "Ġfle": 2525,
      "Ġmean": 2526,
      "Ġchair": 2527,
      "Ġpot": 2528,
      "Ġstudy": 2529,
      "Ġaway": 2530,
      "Ġsain": 2531,
      "Ġ184": 2532,
      "Ġsepar": 2533,
      "##tt": 2534,
      "Ġaccess": 2535,
      "##cis": 2536,
      "##mar": 2537,
      "Ġreb": 2538,
      "Ġflow": 2539,
      "Ġarts": 2540,
      "Ġmic": 2541,
      "##icle": 2542,
      "Ġknow": 2543,
      "##olic": 2544,
      "Ġevents": 2545,
      "Ġfestival": 2546,
      "Ġthroughout": 2547,
      "Ġhard": 2548,
      "Ġplayers": 2549,
      "Ġdespite": 2550,
      "##iting": 2551,
      "Ġps": 2552,
      "Ġmiddle": 2553,
      "Ġagre": 2554,
      "Ġstudies": 2555,
      "Ġconnect": 2556,
      "Ġ1997": 2557,
      "##ceed": 2558,
      "Ġ1996": 2559,
      "Ġwashing": 2560,
      "Ġenv": 2561,
      "Ġthomas": 2562,
      "Ġbir": 2563,
      "##anted": 2564,
      "##ania": 2565,
      "Ġsun": 2566,
      "Ġavailable": 2567,
      "Ġcommer": 2568,
      "Ġrights": 2569,
      "Ġexecut": 2570,
      "Ġsuccessful": 2571,
      "Ġnetwork": 2572,
      "Ġcens": 2573,
      "Ġbrown": 2574,
      "Ġdirected": 2575,
      "##imes": 2576,
      "Ġstri": 2577,
      "Ġqual": 2578,
      "Ġ!": 2579,
      "Ġstage": 2580,
      "Ġtreat": 2581,
      "Ġbooks": 2582,
      "Ġcand": 2583,
      "Ġmex": 2584,
      "##ban": 2585,
      "Ġprovince": 2586,
      "##ba": 2587,
      "Ġlibr": 2588,
      "Ġimpro": 2589,
      "Ġmodel": 2590,
      "Ġpast": 2591,
      "Ġcharles": 2592,
      "Ġschools": 2593,
      "Ġly": 2594,
      "Ġroute": 2595,
      "Ġperformance": 2596,
      "Ġach": 2597,
      "##ris": 2598,
      "Ġjapanese": 2599,
      "##ensive": 2600,
      "Ġenc": 2601,
      "Ġperformed": 2602,
      "##erson": 2603,
      "Ġwashington": 2604,
      "Ġproduct": 2605,
      "##ification": 2606,
      "Ġeventually": 2607,
      "Ġul": 2608,
      "Ġdesigned": 2609,
      "Ġsex": 2610,
      "Ġacademy": 2611,
      "Ġkingdom": 2612,
      "Ġnovel": 2613,
      "##ique": 2614,
      "Ġpolic": 2615,
      "Ġmonths": 2616,
      "Ġfind": 2617,
      "##ij": 2618,
      "##uf": 2619,
      "Ġstra": 2620,
      "Ġfamil": 2621,
      "Ġangel": 2622,
      "Ġanal": 2623,
      "Ġmaterial": 2624,
      "Ġtar": 2625,
      "##ida": 2626,
      "Ġsubsequ": 2627,
      "Ġtaken": 2628,
      "ĠÂ": 2629,
      "##enth": 2630,
      "Ġcontract": 2631,
      "Ġacqu": 2632,
      "Ġviol": 2633,
      "##reg": 2634,
      "##ky": 2635,
      "Ġregular": 2636,
      "##oney": 2637,
      "Ġrange": 2638,
      "##ula": 2639,
      "Ġgave": 2640,
      "Ġtype": 2641,
      "Ġcompleted": 2642,
      "Ġalex": 2643,
      "Ġearl": 2644,
      "##less": 2645,
      "##iron": 2646,
      "##ids": 2647,
      "Ġinj": 2648,
      "Ġprivate": 2649,
      "##cle": 2650,
      "##itz": 2651,
      "##ells": 2652,
      "Ġ1995": 2653,
      "Ġcondu": 2654,
      "##berg": 2655,
      "Ġlet": 2656,
      "Ġfinished": 2657,
      "Ġcurrently": 2658,
      "Ġfederal": 2659,
      "Ġfollowed": 2660,
      "Ġprofessor": 2661,
      "Ġpeak": 2662,
      "Ġcolon": 2663,
      "Ġcho": 2664,
      "Ġbroadcast": 2665,
      "Ġfer": 2666,
      "##most": 2667,
      "Ġincludes": 2668,
      "Ġsym": 2669,
      "Ġwall": 2670,
      "Ġkilled": 2671,
      "Ġlu": 2672,
      "##ee": 2673,
      "Ġlargest": 2674,
      "Ġcapital": 2675,
      "##orm": 2676,
      "Ġwil": 2677,
      "Ġfourth": 2678,
      "Ġcath": 2679,
      "##rian": 2680,
      "Ġhistoric": 2681,
      "##acy": 2682,
      "Ġnar": 2683,
      "##itar": 2684,
      "##iction": 2685,
      "##ential": 2686,
      "##inese": 2687,
      "##hem": 2688,
      "Ġlear": 2689,
      "Ġleading": 2690,
      "##pre": 2691,
      "Ġchap": 2692,
      "Ġassemb": 2693,
      "Ġha": 2694,
      "Ġgoal": 2695,
      "Ġdig": 2696,
      "Ġrussian": 2697,
      "##ened": 2698,
      "Ġparis": 2699,
      "Ġchart": 2700,
      "##ga": 2701,
      "Ġhospital": 2702,
      "Ġdemocr": 2703,
      "Ġ1994": 2704,
      "##ificant": 2705,
      "Ġfeatures": 2706,
      "##ari": 2707,
      "Ġinstead": 2708,
      "Ġwid": 2709,
      "Ġ1992": 2710,
      "Ġchristian": 2711,
      "Ġmethod": 2712,
      "Ġmagazine": 2713,
      "##iation": 2714,
      "Ġfut": 2715,
      "Ġinterv": 2716,
      "##of": 2717,
      "Ġproble": 2718,
      "Ġplant": 2719,
      "Ġsports": 2720,
      "Ġsignificant": 2721,
      "Ġenviron": 2722,
      "Ġchinese": 2723,
      "Ġcanadian": 2724,
      "Ġremained": 2725,
      "Ġtournament": 2726,
      "##ways": 2727,
      "Ġsay": 2728,
      "Ġaircraft": 2729,
      "Ġsection": 2730,
      "Ġdiscover": 2731,
      "Ġpay": 2732,
      "##sc": 2733,
      "Ġneg": 2734,
      "Ġprior": 2735,
      "##ked": 2736,
      "Ġafrican": 2737,
      "Ġchann": 2738,
      "##lay": 2739,
      "##wer": 2740,
      "Ġawarded": 2741,
      "Ġlouis": 2742,
      "##ician": 2743,
      "Ġseen": 2744,
      "Ġlook": 2745,
      "##band": 2746,
      "Ġaction": 2747,
      "##ateg": 2748,
      "Ġfeatured": 2749,
      "##atory": 2750,
      "##iers": 2751,
      "##elling": 2752,
      "Ġkar": 2753,
      "Ġbud": 2754,
      "Ġcensus": 2755,
      "##aker": 2756,
      "##ston": 2757,
      "Ġawards": 2758,
      "Ġexc": 2759,
      "##over": 2760,
      "Ġmix": 2761,
      "Ġroom": 2762,
      "Ġvia": 2763,
      "Ġ183": 2764,
      "Ġconference": 2765,
      "Ġfig": 2766,
      "Ġmichael": 2767,
      "Ġsurv": 2768,
      "Ġliber": 2769,
      "Ġcompetition": 2770,
      "##lor": 2771,
      "##de": 2772,
      "Ġforest": 2773,
      "Ġconsist": 2774,
      "##wor": 2775,
      "Ġsquad": 2776,
      "Ġgroups": 2777,
      "Ġara": 2778,
      "##ye": 2779,
      "Ġscott": 2780,
      "Ġbord": 2781,
      "Ġrepublic": 2782,
      "Ġrespons": 2783,
      "Ġitalian": 2784,
      "Ġcorn": 2785,
      "##pec": 2786,
      "##bc": 2787,
      "Ġloss": 2788,
      "Ġcolla": 2789,
      "Ġstaff": 2790,
      "##rick": 2791,
      "##ume": 2792,
      "Ġsaw": 2793,
      "Ġgovernor": 2794,
      "##hi": 2795,
      "##ught": 2796,
      "Ġusually": 2797,
      "Ġ1993": 2798,
      "Ġmovement": 2799,
      "Ġbat": 2800,
      "Ġmedical": 2801,
      "Ġindependent": 2802,
      "Ġhousehold": 2803,
      "Ġtransl": 2804,
      "Ġtravel": 2805,
      "##ination": 2806,
      "Ġchange": 2807,
      "Ġsuggest": 2808,
      "##ude": 2809,
      "Ġcit": 2810,
      "Ġlower": 2811,
      "Ġstudio": 2812,
      "Ġcut": 2813,
      "##nes": 2814,
      "Ġtransfer": 2815,
      "Ġtransport": 2816,
      "##cent": 2817,
      "Ġable": 2818,
      "Ġclose": 2819,
      "Ġfav": 2820,
      "Ġdom": 2821,
      "Ġnatural": 2822,
      "Ġanc": 2823,
      "Ġcard": 2824,
      "##ware": 2825,
      "Ġcompos": 2826,
      "##ump": 2827,
      "Ġentire": 2828,
      "Ġfrancis": 2829,
      "Ġfrank": 2830,
      "Ġvan": 2831,
      "Ġox": 2832,
      "Ġbow": 2833,
      "Ġfemale": 2834,
      "Ġthus": 2835,
      "Ġterrit": 2836,
      "Ġplat": 2837,
      "##itt": 2838,
      "Ġinvolved": 2839,
      "Ġ1990": 2840,
      "##ults": 2841,
      "Ġabove": 2842,
      "##isl": 2843,
      "Ġwinning": 2844,
      "Ġcountries": 2845,
      "Ġsenior": 2846,
      "Ġdegree": 2847,
      "Ġquar": 2848,
      "Ġjose": 2849,
      "Ġ1991": 2850,
      "Ġmedal": 2851,
      "Ġire": 2852,
      "Ġhun": 2853,
      "Ġadded": 2854,
      "Ġeither": 2855,
      "Ġachie": 2856,
      "Ġexhib": 2857,
      "Ġorganization": 2858,
      "Ġbran": 2859,
      "Ġdeal": 2860,
      "Ġbridge": 2861,
      "##ala": 2862,
      "Ġcollection": 2863,
      "Ġ35": 2864,
      "##pan": 2865,
      "Ġblue": 2866,
      "Ġreplaced": 2867,
      "Ġath": 2868,
      "##ergy": 2869,
      "##acher": 2870,
      "Ġspanish": 2871,
      "Ġpeter": 2872,
      "Ġrespect": 2873,
      "Ġcomput": 2874,
      "Ġhenry": 2875,
      "##aged": 2876,
      "Ġdeter": 2877,
      "##ements": 2878,
      "Ġleast": 2879,
      "Ġmaster": 2880,
      "##ography": 2881,
      "Ġedition": 2882,
      "##erous": 2883,
      "##ilities": 2884,
      "Ġfood": 2885,
      "Ġstated": 2886,
      "##ption": 2887,
      "Ġtoday": 2888,
      "Ġfla": 2889,
      "Ġpreviously": 2890,
      "Ġrichard": 2891,
      "Ġofficer": 2892,
      "##cing": 2893,
      "##bour": 2894,
      "##za": 2895,
      "Ġkey": 2896,
      "Ġwoman": 2897,
      "Ġleader": 2898,
      "Ġsmith": 2899,
      "Ġimm": 2900,
      "Ġforeign": 2901,
      "Ġvictor": 2902,
      "##pl": 2903,
      "##iple": 2904,
      "##jo": 2905,
      "Ġclos": 2906,
      "##off": 2907,
      "Ġcongress": 2908,
      "##airs": 2909,
      "Ġafrica": 2910,
      "Ġsubject": 2911,
      "Ġtrib": 2912,
      "Ġcritic": 2913,
      "Ġfamilies": 2914,
      "Ġsand": 2915,
      "Ġpun": 2916,
      "Ġlegisl": 2917,
      "Ġban": 2918,
      "Ġregister": 2919,
      "##fic": 2920,
      "Ġdram": 2921,
      "##aries": 2922,
      "Ġwee": 2923,
      "##igned": 2924,
      "##cial": 2925,
      "Ġvoc": 2926,
      "Ġmr": 2927,
      "##gen": 2928,
      "##ishop": 2929,
      "##iff": 2930,
      "Ġcandid": 2931,
      "Ġmeas": 2932,
      "##atives": 2933,
      "Ġbul": 2934,
      "Ġmanagement": 2935,
      "Ġenvironment": 2936,
      "##stand": 2937,
      "Ġgard": 2938,
      "##asing": 2939,
      "Ġtechnology": 2940,
      "##ona": 2941,
      "Ġmont": 2942,
      "Ġnomin": 2943,
      "Ġindustry": 2944,
      "Ġscient": 2945,
      "Ġmos": 2946,
      "##ength": 2947,
      "##ters": 2948,
      "Ġsoon": 2949,
      "Ġprovided": 2950,
      "Ġlibrary": 2951,
      "Ġfilms": 2952,
      "Ġglo": 2953,
      "Ġsho": 2954,
      "Ġapproxim": 2955,
      "Ġaccount": 2956,
      "Ġrap": 2957,
      "Ġsystems": 2958,
      "Ġsitu": 2959,
      "##istry": 2960,
      "Ġemer": 2961,
      "Ġvirgin": 2962,
      "Ġconserv": 2963,
      "##yer": 2964,
      "Ġaccept": 2965,
      "Ġtax": 2966,
      "Ġplaced": 2967,
      "Ġanti": 2968,
      "Ġcra": 2969,
      "Ġeth": 2970,
      "Ġstandard": 2971,
      "##oviet": 2972,
      "Ġearth": 2973,
      "##ems": 2974,
      "Ġoccup": 2975,
      "##han": 2976,
      "Ġinvestig": 2977,
      "##hood": 2978,
      "##bal": 2979,
      "Ġrather": 2980,
      "Ġpac": 2981,
      "##rated": 2982,
      "Ġwriting": 2983,
      "Ġtheatre": 2984,
      "##ams": 2985,
      "Ġscre": 2986,
      "##istan": 2987,
      "##men": 2988,
      "Ġlisted": 2989,
      "##icated": 2990,
      "##ving": 2991,
      "Ġsaint": 2992,
      "##Äģ": 2993,
      "Ġchic": 2994,
      "Ġdocument": 2995,
      "Ġparen": 2996,
      "##aland": 2997,
      "Ġ#": 2998,
      "##ych": 2999,
      "Ġsaf": 3000,
      "Ġreached": 3001,
      "Ġ1989": 3002,
      "Ġcontribut": 3003,
      "Ġmission": 3004,
      "Ġbeginning": 3005,
      "Ġowned": 3006,
      "##aching": 3007,
      "##ria": 3008,
      "##amb": 3009,
      "Ġaccom": 3010,
      "##asc": 3011,
      "Ġintroduced": 3012,
      "Ġbehind": 3013,
      "Ġcov": 3014,
      "Ġprimary": 3015,
      "##enue": 3016,
      "Ġoccur": 3017,
      "##urity": 3018,
      "Ġireland": 3019,
      "Ġdestro": 3020,
      "Ġinn": 3021,
      "##sel": 3022,
      "##hest": 3023,
      "Ġpow": 3024,
      "##ker": 3025,
      "##isc": 3026,
      "Ġblo": 3027,
      "Ġpenn": 3028,
      "Ġrelated": 3029,
      "##Ã¤": 3030,
      "Ġalmost": 3031,
      "Ġflor": 3032,
      "##odes": 3033,
      "Ġhus": 3034,
      "Ġsant": 3035,
      "Ġlord": 3036,
      "##pr": 3037,
      "Ġshows": 3038,
      "##vey": 3039,
      "Ġunit": 3040,
      "Ġfuture": 3041,
      "Ġ45": 3042,
      "##onst": 3043,
      "Ġnative": 3044,
      "Ġvalley": 3045,
      "Ġlength": 3046,
      "Ġ32": 3047,
      "Ġoutside": 3048,
      "Ġneigh": 3049,
      "Ġwhose": 3050,
      "Ġparts": 3051,
      "Ġeconomic": 3052,
      "Ġcarol": 3053,
      "Ġsoviet": 3054,
      "Ġpred": 3055,
      "Ġschol": 3056,
      "Ġstop": 3057,
      "Ġbor": 3058,
      "Ġdro": 3059,
      "Ġwild": 3060,
      "Ġbad": 3061,
      "Ġscored": 3062,
      "Ġactive": 3063,
      "Ġsize": 3064,
      "Ġ1988": 3065,
      "Ġhigher": 3066,
      "##iate": 3067,
      "Ġcome": 3068,
      "Ġdecided": 3069,
      "Ġfinanc": 3070,
      "Ġjew": 3071,
      "##val": 3072,
      "##ush": 3073,
      "Ġcolor": 3074,
      "Ġtrade": 3075,
      "Ġcatholic": 3076,
      "Ġreve": 3077,
      "Ġbreak": 3078,
      "Ġprison": 3079,
      "##rael": 3080,
      "Ġheart": 3081,
      "Ġmi": 3082,
      "Ġsyn": 3083,
      "Ġkore": 3084,
      "Ġbuildings": 3085,
      "##oon": 3086,
      "##ability": 3087,
      "##rd": 3088,
      "Ġoperations": 3089,
      "##arily": 3090,
      "Ġregional": 3091,
      "Ġregard": 3092,
      "Ġself": 3093,
      "Ġcorpor": 3094,
      "##lands": 3095,
      "##ander": 3096,
      "Ġprovide": 3097,
      "Ġsir": 3098,
      "Ġvalue": 3099,
      "Ġreason": 3100,
      "Ġminor": 3101,
      "##apt": 3102,
      "##ii": 3103,
      "##ado": 3104,
      "Ġmach": 3105,
      "Ġspeed": 3106,
      "Ġquest": 3107,
      "Ġgall": 3108,
      "Ġpil": 3109,
      "Ġtexas": 3110,
      "Ġattended": 3111,
      "##aves": 3112,
      "Ġtoo": 3113,
      "Ġculture": 3114,
      "Ġlimited": 3115,
      "##imate": 3116,
      "Ġ?": 3117,
      "Ġatl": 3118,
      "Ġsecretary": 3119,
      "Ġisrael": 3120,
      "Ġsurf": 3121,
      "Ġpurch": 3122,
      "Ġplaces": 3123,
      "Ġsla": 3124,
      "##west": 3125,
      "Ġassembly": 3126,
      "Ġcommercial": 3127,
      "Ġestablish": 3128,
      "##olf": 3129,
      "##icles": 3130,
      "##head": 3131,
      "##pper": 3132,
      "Ġsha": 3133,
      "Ġmountain": 3134,
      "Ġobject": 3135,
      "Ġta": 3136,
      "Ġnavy": 3137,
      "Ġchall": 3138,
      "Ġrelationship": 3139,
      "Ġchannel": 3140,
      "Ġcomplex": 3141,
      "Ġpoet": 3142,
      "Ġsometimes": 3143,
      "##pped": 3144,
      "Ġrh": 3145,
      "Ġfrequ": 3146,
      "##my": 3147,
      "Ġfellow": 3148,
      "Ġinitially": 3149,
      "Ġsquare": 3150,
      "Ġstad": 3151,
      "##va": 3152,
      "##har": 3153,
      "Ġund": 3154,
      "Ġcred": 3155,
      "Ġdomin": 3156,
      "Ġcele": 3157,
      "##erve": 3158,
      "##ror": 3159,
      "Ġ500": 3160,
      "Ġoperation": 3161,
      "Ġzealand": 3162,
      "##aled": 3163,
      "Ġtaking": 3164,
      "##oll": 3165,
      "##arian": 3166,
      "Ġenergy": 3167,
      "Ġstep": 3168,
      "Ġlived": 3169,
      "Ġapproximately": 3170,
      "Ġamb": 3171,
      "Ġbrought": 3172,
      "Ġchicago": 3173,
      "Ġ60": 3174,
      "Ġpossible": 3175,
      "Ġmanager": 3176,
      "Ġstudent": 3177,
      "Ġol": 3178,
      "Ġ1987": 3179,
      "Ġ+": 3180,
      "Ġtraditional": 3181,
      "Ġbrand": 3182,
      "Ġcaptain": 3183,
      "Ġespec": 3184,
      "##iences": 3185,
      "##ym": 3186,
      "Ġmoney": 3187,
      "##edy": 3188,
      "Ġtowards": 3189,
      "##aut": 3190,
      "Ġemb": 3191,
      "Ġoppos": 3192,
      "##ini": 3193,
      "Ġunits": 3194,
      "Ġespecially": 3195,
      "Ġruns": 3196,
      "Ġ182": 3197,
      "Ġfoundation": 3198,
      "##aring": 3199,
      "##porary": 3200,
      "Ġspring": 3201,
      "Ġdefeated": 3202,
      "Ġhonor": 3203,
      "Ġeditor": 3204,
      "Ġtext": 3205,
      "##ont": 3206,
      "Ġsecurity": 3207,
      "Ġcer": 3208,
      "##idae": 3209,
      "Ġ181": 3210,
      "Ġwriter": 3211,
      "Ġswed": 3212,
      "Ġsubst": 3213,
      "Ġadministr": 3214,
      "##chan": 3215,
      "Ġchampionships": 3216,
      "Ġ1986": 3217,
      "##su": 3218,
      "Ġbox": 3219,
      "Ġthre": 3220,
      "##ging": 3221,
      "Ġexcept": 3222,
      "##ufact": 3223,
      "##uction": 3224,
      "Ġsinger": 3225,
      "Ġrepresented": 3226,
      "##ners": 3227,
      "Ġmanufact": 3228,
      "Ġpie": 3229,
      "Ġlog": 3230,
      "##istic": 3231,
      "##ada": 3232,
      "Ġmaint": 3233,
      "##elled": 3234,
      "Ġended": 3235,
      "Ġgal": 3236,
      "Ġsettle": 3237,
      "Ġchanged": 3238,
      "Ġboy": 3239,
      "##ota": 3240,
      "##ns": 3241,
      "Ġexecutive": 3242,
      "Ġda": 3243,
      "##orial": 3244,
      "##ires": 3245,
      "Ġbelow": 3246,
      "Ġfunction": 3247,
      "Ġfly": 3248,
      "##ano": 3249,
      "Ġallowed": 3250,
      "Ġplays": 3251,
      "##sec": 3252,
      "Ġ1984": 3253,
      "Ġhere": 3254,
      "Ġhistorical": 3255,
      "Ġquarter": 3256,
      "Ġannual": 3257,
      "##atch": 3258,
      "Ġhighest": 3259,
      "Ġmusical": 3260,
      "Ġlie": 3261,
      "Ġrural": 3262,
      "Ġrunning": 3263,
      "Ġindividual": 3264,
      "Ġcust": 3265,
      "Ġnine": 3266,
      "Ġ1985": 3267,
      "Ġfarm": 3268,
      "Ġour": 3269,
      "Ġgenerally": 3270,
      "Ġstone": 3271,
      "Ġflight": 3272,
      "##pap": 3273,
      "Ġmunicipality": 3274,
      "Ġairport": 3275,
      "Ġartists": 3276,
      "Ġabs": 3277,
      "##idents": 3278,
      "##ny": 3279,
      "##tic": 3280,
      "Ġpersonal": 3281,
      "Ġguitar": 3282,
      "Ġdie": 3283,
      "##lam": 3284,
      "##king": 3285,
      "##use": 3286,
      "Ġwing": 3287,
      "Ġiv": 3288,
      "Ġ36": 3289,
      "Ġlaunched": 3290,
      "Ġwide": 3291,
      "##ita": 3292,
      "Ġwhom": 3293,
      "##ura": 3294,
      "Ġsar": 3295,
      "Ġ1980": 3296,
      "Ġprincip": 3297,
      "Ġfocus": 3298,
      "Ġyouth": 3299,
      "Ġcab": 3300,
      "Ġgot": 3301,
      "Ġ65": 3302,
      "##oke": 3303,
      "Ġdark": 3304,
      "Ġstructure": 3305,
      "##ension": 3306,
      "Ġapplic": 3307,
      "Ġdecision": 3308,
      "Ġcourse": 3309,
      "##Åį": 3310,
      "Ġclosed": 3311,
      "##enced": 3312,
      "Ġremov": 3313,
      "Ġitself": 3314,
      "Ġcommunic": 3315,
      "Ġproperty": 3316,
      "##heast": 3317,
      "Ġteacher": 3318,
      "Ġscot": 3319,
      "Ġcertain": 3320,
      "##uals": 3321,
      "Ġ33": 3322,
      "Ġadditional": 3323,
      "Ġportra": 3324,
      "##ero": 3325,
      "Ġbasket": 3326,
      "Ġdate": 3327,
      "Ġvictory": 3328,
      "Ġpsych": 3329,
      "Ġseat": 3330,
      "Ġassociated": 3331,
      "##here": 3332,
      "##ios": 3333,
      "Ġopening": 3334,
      "Ġqueen": 3335,
      "Ġguard": 3336,
      "##fl": 3337,
      "Ġfair": 3338,
      "##board": 3339,
      "Ġult": 3340,
      "##well": 3341,
      "##ground": 3342,
      "Ġlabor": 3343,
      "Ġspir": 3344,
      "Ġpractice": 3345,
      "##ja": 3346,
      "Ġnorm": 3347,
      "Ġnewspap": 3348,
      "Ġfel": 3349,
      "Ġlegal": 3350,
      "##hab": 3351,
      "Ġpolicy": 3352,
      "Ġdead": 3353,
      "Ġcelebr": 3354,
      "##wa": 3355,
      "Ġearlier": 3356,
      "Ġtrain": 3357,
      "Ġmatt": 3358,
      "Ġdraw": 3359,
      "##leg": 3360,
      "Ġtun": 3361,
      "##ola": 3362,
      "Ġaltern": 3363,
      "Ġspent": 3364,
      "Ġwa": 3365,
      "##road": 3366,
      "Ġjoseph": 3367,
      "Ġ1983": 3368,
      "Ġhu": 3369,
      "Ġhapp": 3370,
      "Ġcultural": 3371,
      "Ġempire": 3372,
      "Ġrequired": 3373,
      "Ġprotest": 3374,
      "Ġmeans": 3375,
      "Ġgeorg": 3376,
      "Ġveh": 3377,
      "Ġface": 3378,
      "Ġstadium": 3379,
      "Ġpurp": 3380,
      "##isher": 3381,
      "Ġissue": 3382,
      "Ġbetter": 3383,
      "##aps": 3384,
      "Ġcontest": 3385,
      "Ġsoft": 3386,
      "Ġmu": 3387,
      "Ġangeles": 3388,
      "Ġblock": 3389,
      "##Ã¨": 3390,
      "Ġitaly": 3391,
      "##ought": 3392,
      "Ġcompanies": 3393,
      "##lied": 3394,
      "Ġess": 3395,
      "##rial": 3396,
      "Ġissues": 3397,
      "Ġshot": 3398,
      "Ġcomplete": 3399,
      "Ġprob": 3400,
      "##anned": 3401,
      "##ani": 3402,
      "Ġmexico": 3403,
      "Ġbeg": 3404,
      "Ġsilver": 3405,
      "##ena": 3406,
      "##pected": 3407,
      "Ġ1982": 3408,
      "Ġscore": 3409,
      "Ġselected": 3410,
      "Ġcases": 3411,
      "Ġast": 3412,
      "Ġmultiple": 3413,
      "Ġvariet": 3414,
      "##ows": 3415,
      "Ġburn": 3416,
      "##ites": 3417,
      "Ġjack": 3418,
      "##ox": 3419,
      "Ġinterview": 3420,
      "##ibility": 3421,
      "Ġchem": 3422,
      "Ġadop": 3423,
      "Ġbene": 3424,
      "Ġsett": 3425,
      "Ġrevolution": 3426,
      "Ġdemocratic": 3427,
      "##aur": 3428,
      "##back": 3429,
      "Ġnumerous": 3430,
      "##asion": 3431,
      "Ġbishop": 3432,
      "Ġadministration": 3433,
      "##ready": 3434,
      "ĠÐ": 3435,
      "Ġheavy": 3436,
      "Ġsubsequently": 3437,
      "Ġlik": 3438,
      "Ġathlet": 3439,
      "Ġreligious": 3440,
      "Ġfinancial": 3441,
      "Ġbomb": 3442,
      "##antic": 3443,
      "Ġgreek": 3444,
      "Ġ1979": 3445,
      "##riage": 3446,
      "##ask": 3447,
      "Ġlay": 3448,
      "##igan": 3449,
      "Ġgoals": 3450,
      "Ġopt": 3451,
      "Ġris": 3452,
      "##era": 3453,
      "##ify": 3454,
      "##ental": 3455,
      "Ġcd": 3456,
      "Ġjustice": 3457,
      "Ġoh": 3458,
      "Ġprince": 3459,
      "Ġcontains": 3460,
      "Ġword": 3461,
      "Ġnoted": 3462,
      "Ġhusband": 3463,
      "Ġconcept": 3464,
      "Ġmove": 3465,
      "Ġos": 3466,
      "Ġsurround": 3467,
      "Ġclear": 3468,
      "Ġentered": 3469,
      "Ġalready": 3470,
      "Ġmatches": 3471,
      "Ġirish": 3472,
      "##iÄ": 3473,
      "Ġsister": 3474,
      "##lect": 3475,
      "Ġprime": 3476,
      "Ġinte": 3477,
      "Ġbirth": 3478,
      "##iated": 3479,
      "##ste": 3480,
      "Ġlic": 3481,
      "Ġindic": 3482,
      "##ims": 3483,
      "##ores": 3484,
      "Ġhop": 3485,
      "Ġlocation": 3486,
      "Ġvirginia": 3487,
      "Ġthought": 3488,
      "Ġros": 3489,
      "Ġexpand": 3490,
      "Ġens": 3491,
      "Ġwales": 3492,
      "Ġmartin": 3493,
      "Ġequip": 3494,
      "##bi": 3495,
      "Ġtermin": 3496,
      "Ġ1972": 3497,
      "Ġoil": 3498,
      "Ġdyn": 3499,
      "##usion": 3500,
      "Ġ180": 3501,
      "Ġbecoming": 3502,
      "Ġmajority": 3503,
      "Ġpolitician": 3504,
      "##ole": 3505,
      "##lement": 3506,
      "Ġhighway": 3507,
      "Ġstudied": 3508,
      "Ġstarting": 3509,
      "Ġappearance": 3510,
      "Ġincreased": 3511,
      "Ġded": 3512,
      "Ġgh": 3513,
      "Ġgoing": 3514,
      "##uments": 3515,
      "Ġ34": 3516,
      "Ġoperated": 3517,
      "Ġolder": 3518,
      "Ġ1981": 3519,
      "Ġcharacters": 3520,
      "Ġrussia": 3521,
      "##ection": 3522,
      "Ġimmed": 3523,
      "Ġreform": 3524,
      "##ingu": 3525,
      "##orpor": 3526,
      "Ġbraz": 3527,
      "Ġchairman": 3528,
      "Ġpict": 3529,
      "Ġinsp": 3530,
      "Ġbasketball": 3531,
      "Ġba": 3532,
      "Ġnature": 3533,
      "Ġcastle": 3534,
      "Ġbound": 3535,
      "Ġdiffic": 3536,
      "Ġupper": 3537,
      "Ġ1945": 3538,
      "##rying": 3539,
      "Ġhours": 3540,
      "Ġislands": 3541,
      "Ġles": 3542,
      "Ġdoctor": 3543,
      "Ġarab": 3544,
      "Ġcollabor": 3545,
      "Ġbrig": 3546,
      "Ġcolumb": 3547,
      "Ġcas": 3548,
      "Ġdifficult": 3549,
      "##ider": 3550,
      "##ribution": 3551,
      "Ġcontem": 3552,
      "Ġcaused": 3553,
      "Ġobt": 3554,
      "Ġfamous": 3555,
      "Ġven": 3556,
      "Ġ1976": 3557,
      "Ġcitiz": 3558,
      "Ġhaw": 3559,
      "Ġscreen": 3560,
      "Ġtheory": 3561,
      "Ġmir": 3562,
      "Ġfinally": 3563,
      "Ġprogress": 3564,
      "##ift": 3565,
      "Ġlines": 3566,
      "Ġactor": 3567,
      "##aught": 3568,
      "Ġinstr": 3569,
      "Ġmeeting": 3570,
      "Ġmale": 3571,
      "Ġpeace": 3572,
      "Ġlack": 3573,
      "##ream": 3574,
      "Ġagric": 3575,
      "Ġ1st": 3576,
      "Ġnation": 3577,
      "Ġnames": 3578,
      "Ġgirl": 3579,
      "Ġ1978": 3580,
      "Ġolympics": 3581,
      "Ġfifth": 3582,
      "Ġoverall": 3583,
      "Ġpacific": 3584,
      "Ġ1974": 3585,
      "Ġregiment": 3586,
      "Ġfred": 3587,
      "Ġserving": 3588,
      "Ġincome": 3589,
      "Ġgive": 3590,
      "Ġevidence": 3591,
      "Ġkeep": 3592,
      "Ġonline": 3593,
      "Ġ1975": 3594,
      "##izing": 3595,
      "Ġ1970": 3596,
      "Ġmovie": 3597,
      "Ġcell": 3598,
      "Ġterms": 3599,
      "Ġbab": 3600,
      "Ġelectric": 3601,
      "##oms": 3602,
      "Ġspecific": 3603,
      "Ġstars": 3604,
      "Ġagricult": 3605,
      "Ġpu": 3606,
      "Ġretired": 3607,
      "##tered": 3608,
      "Ġmostly": 3609,
      "Ġ1968": 3610,
      "##tar": 3611,
      "##ulated": 3612,
      "Ġattend": 3613,
      "Ġbeat": 3614,
      "Ġparticularly": 3615,
      "##outh": 3616,
      "Ġactivities": 3617,
      "Ġrang": 3618,
      "Ġprize": 3619,
      "##ko": 3620,
      "Ġjer": 3621,
      "##ques": 3622,
      "##oring": 3623,
      "Ġray": 3624,
      "Ġful": 3625,
      "Ġproducer": 3626,
      "Ġdiscuss": 3627,
      "Ġchanges": 3628,
      "Ġbird": 3629,
      "Ġcreate": 3630,
      "Ġcann": 3631,
      "Ġflorida": 3632,
      "##cript": 3633,
      "Ġforced": 3634,
      "##uth": 3635,
      "##bers": 3636,
      "##mitted": 3637,
      "Ġphilos": 3638,
      "Ġtrust": 3639,
      "Ġtwent": 3640,
      "##inn": 3641,
      "Ġstock": 3642,
      "Ġ1977": 3643,
      "Ġchampion": 3644,
      "Ġwinter": 3645,
      "##inet": 3646,
      "##ession": 3647,
      "##inal": 3648,
      "Ġarrest": 3649,
      "Ġdance": 3650,
      "##ros": 3651,
      "Ġtracks": 3652,
      "##Ã³n": 3653,
      "Ġhur": 3654,
      "Ġrepublican": 3655,
      "Ġbrazil": 3656,
      "Ġdefend": 3657,
      "Ġ44": 3658,
      "Ġ1973": 3659,
      "Ġsav": 3660,
      "##oma": 3661,
      "##erved": 3662,
      "Ġpercent": 3663,
      "Ġrecording": 3664,
      "Ġquick": 3665,
      "##inct": 3666,
      "Ġsupported": 3667,
      "##bridge": 3668,
      "Ġmcc": 3669,
      "Ġlink": 3670,
      "##enc": 3671,
      "Ġcompeted": 3672,
      "Ġdeep": 3673,
      "Ġmechan": 3674,
      "Ġexpl": 3675,
      "##ken": 3676,
      "Ġanth": 3677,
      "Ġfriends": 3678,
      "##aches": 3679,
      "Ġdouble": 3680,
      "Ġtakes": 3681,
      "Ġcommander": 3682,
      "Ġremains": 3683,
      "Ġplatform": 3684,
      "Ġarran": 3685,
      "Ġjim": 3686,
      "##oper": 3687,
      "Ġ38": 3688,
      "Ġminutes": 3689,
      "Ġram": 3690,
      "Ġstay": 3691,
      "Ġlee": 3692,
      "Ġjewish": 3693,
      "Ġprograms": 3694,
      "Ġpassed": 3695,
      "##oy": 3696,
      "Ġ37": 3697,
      "Ġ1971": 3698,
      "Ġcateg": 3699,
      "##ki": 3700,
      "Ġparish": 3701,
      "Ġera": 3702,
      "Ġdar": 3703,
      "##hire": 3704,
      "Ġdigital": 3705,
      "Ġ179": 3706,
      "Ġassistant": 3707,
      "Ġresults": 3708,
      "Ġmedic": 3709,
      "Ġmayor": 3710,
      "Ġfra": 3711,
      "##ees": 3712,
      "##ties": 3713,
      "##rison": 3714,
      "Ġsource": 3715,
      "Ġpick": 3716,
      "##ylv": 3717,
      "Ġhung": 3718,
      "Ġcontinu": 3719,
      "##change": 3720,
      "Ġtenn": 3721,
      "##rief": 3722,
      "Ġtemple": 3723,
      "##right": 3724,
      "Ġraised": 3725,
      "Ġ80": 3726,
      "Ġweeks": 3727,
      "Ġarticle": 3728,
      "Ġdun": 3729,
      "Ġpresented": 3730,
      "Ġic": 3731,
      "Ġconver": 3732,
      "Ġ1969": 3733,
      "Ġsequ": 3734,
      "##vin": 3735,
      "Ġpric": 3736,
      "Ġgas": 3737,
      "##bon": 3738,
      "##isions": 3739,
      "Ġclaimed": 3740,
      "Ġedward": 3741,
      "Ġengineering": 3742,
      "Ġiii": 3743,
      "Ġancient": 3744,
      "##gers": 3745,
      "Ġmeaning": 3746,
      "##uit": 3747,
      "##onse": 3748,
      "Ġpromin": 3749,
      "Ġworkers": 3750,
      "Ġvice": 3751,
      "Ġdepend": 3752,
      "Ġtarget": 3753,
      "Ġrate": 3754,
      "Ġsev": 3755,
      "Ġseasons": 3756,
      "##anced": 3757,
      "Ġpaper": 3758,
      "##ented": 3759,
      "Ġcorps": 3760,
      "Ġbranch": 3761,
      "Ġdeterm": 3762,
      "Ġice": 3763,
      "Ġec": 3764,
      "Ġleaving": 3765,
      "Ġvariety": 3766,
      "##mond": 3767,
      "Ġvisit": 3768,
      "Ġbring": 3769,
      "Ġshown": 3770,
      "##da": 3771,
      "##ylvania": 3772,
      "##nel": 3773,
      "Ġparents": 3774,
      "Ġconsider": 3775,
      "Ġearned": 3776,
      "Ġpath": 3777,
      "Ġreferred": 3778,
      "Ġbon": 3779,
      "Ġlatter": 3780,
      "Ġstatus": 3781,
      "Ġspain": 3782,
      "##itch": 3783,
      "Ġko": 3784,
      "Ġmention": 3785,
      "##iano": 3786,
      "Ġluc": 3787,
      "##stra": 3788,
      "##utions": 3789,
      "Ġconcern": 3790,
      "##ortun": 3791,
      "Ġlarger": 3792,
      "##ients": 3793,
      "Ġborder": 3794,
      "##hu": 3795,
      "Ġappears": 3796,
      "Ġ1967": 3797,
      "Ġgenus": 3798,
      "Ġlonger": 3799,
      "##ugg": 3800,
      "##standing": 3801,
      "Ġalways": 3802,
      "Ġjul": 3803,
      "##ockey": 3804,
      "Ġdeput": 3805,
      "##iger": 3806,
      "##50": 3807,
      "##oura": 3808,
      "Ġsurface": 3809,
      "Ġaz": 3810,
      "Ġcarl": 3811,
      "Ġ70": 3812,
      "Ġdetail": 3813,
      "Ġpoor": 3814,
      "Ġbaseball": 3815,
      "Ġglobal": 3816,
      "Ġsched": 3817,
      "Ġinstall": 3818,
      "##down": 3819,
      "Ġincrease": 3820,
      "Ġjunior": 3821,
      "Ġlem": 3822,
      "Ġuses": 3823,
      "Ġesc": 3824,
      "Ġpak": 3825,
      "##ils": 3826,
      "##aded": 3827,
      "Ġsport": 3828,
      "Ġtemper": 3829,
      "Ġremain": 3830,
      "Ġ42": 3831,
      "Ġautom": 3832,
      "Ġcomplet": 3833,
      "Ġhouses": 3834,
      "Ġfailed": 3835,
      "Ġnations": 3836,
      "Ġbelong": 3837,
      "Ġwebs": 3838,
      "Ġbron": 3839,
      "Ġelections": 3840,
      "##itation": 3841,
      "##Å¡": 3842,
      "Ġamount": 3843,
      "Ġiran": 3844,
      "Ġ2nd": 3845,
      "Ġcomputer": 3846,
      "Ġmess": 3847,
      "Ġlands": 3848,
      "Ġmotor": 3849,
      "Ġstore": 3850,
      "Ġrat": 3851,
      "##cement": 3852,
      "Ġbol": 3853,
      "##isation": 3854,
      "Ġexperience": 3855,
      "Ġhelped": 3856,
      "Ġmob": 3857,
      "Ġadm": 3858,
      "##yan": 3859,
      "Ġbritain": 3860,
      "##iance": 3861,
      "Ġtroops": 3862,
      "##ipl": 3863,
      "Ġ19th": 3864,
      "Ġministry": 3865,
      "Ġbelieved": 3866,
      "Ġforms": 3867,
      "Ġdone": 3868,
      "ĠÃ": 3869,
      "##umn": 3870,
      "Ġdise": 3871,
      "Ġdutch": 3872,
      "Ġconfir": 3873,
      "##oid": 3874,
      "Ġinfant": 3875,
      "##anda": 3876,
      "Ġ1964": 3877,
      "Ġdrama": 3878,
      "##ote": 3879,
      "##bre": 3880,
      "Ġyour": 3881,
      "Ġiron": 3882,
      "Ġsurvey": 3883,
      "Ġdiss": 3884,
      "Ġmight": 3885,
      "Ġpenns": 3886,
      "Ġnotable": 3887,
      "Ġstories": 3888,
      "Ġcarolina": 3889,
      "Ġvote": 3890,
      "Ġrecent": 3891,
      "##wan": 3892,
      "Ġak": 3893,
      "Ġash": 3894,
      "##ette": 3895,
      "Ġweb": 3896,
      "##azz": 3897,
      "Ġid": 3898,
      "Ġod": 3899,
      "##selves": 3900,
      "Ġremaining": 3901,
      "Ġacquired": 3902,
      "Ġthemselves": 3903,
      "Ġpremi": 3904,
      "Ġcode": 3905,
      "Ġbrief": 3906,
      "##iro": 3907,
      "Ġurban": 3908,
      "Ġcomposed": 3909,
      "Ġresponse": 3910,
      "Ġvolume": 3911,
      "Ġlatin": 3912,
      "Ġmarriage": 3913,
      "Ġdemand": 3914,
      "##omm": 3915,
      "Ġterritory": 3916,
      "Ġpp": 3917,
      "Ġestim": 3918,
      "##gs": 3919,
      "Ġnick": 3920,
      "Ġhab": 3921,
      "Ġstations": 3922,
      "Ġkr": 3923,
      "Ġcarried": 3924,
      "Ġseparate": 3925,
      "Ġbed": 3926,
      "Ġbost": 3927,
      "##bury": 3928,
      "Ġorche": 3929,
      "Ġlabel": 3930,
      "Ġresour": 3931,
      "Ġindustrial": 3932,
      "Ġ1965": 3933,
      "Ġcomment": 3934,
      "Ġindividuals": 3935,
      "##ux": 3936,
      "Ġdrum": 3937,
      "##ips": 3938,
      "Ġcoll": 3939,
      "Ġcatal": 3940,
      "Ġthreat": 3941,
      "Ġpennsylvania": 3942,
      "##cape": 3943,
      "Ġshar": 3944,
      "Ġadministrative": 3945,
      "Ġmainly": 3946,
      "Ġdrug": 3947,
      "##ffic": 3948,
      "Ġenter": 3949,
      "##iÄĩ": 3950,
      "Ġchallen": 3951,
      "Ġlin": 3952,
      "Ġrug": 3953,
      "Ġ41": 3954,
      "Ġ90": 3955,
      "Ġtownship": 3956,
      "Ġheadqu": 3957,
      "Ġmand": 3958,
      "Ġstan": 3959,
      "Ġsuc": 3960,
      "Ġblood": 3961,
      "##ador": 3962,
      "##wh": 3963,
      "Ġdefense": 3964,
      "Ġib": 3965,
      "Ġrain": 3966,
      "Ġcause": 3967,
      "##pa": 3968,
      "Ġpromoted": 3969,
      "##ression": 3970,
      "Ġut": 3971,
      "Ġmagn": 3972,
      "Ġoffered": 3973,
      "Ġorganiz": 3974,
      "Ġ1966": 3975,
      "##iana": 3976,
      "Ġsac": 3977,
      "Ġvoice": 3978,
      "Ġcoal": 3979,
      "##arters": 3980,
      "Ġspl": 3981,
      "##ledge": 3982,
      "Ġcities": 3983,
      "Ġlives": 3984,
      "Ġproposed": 3985,
      "Ġna": 3986,
      "Ġjac": 3987,
      "##ucle": 3988,
      "Ġmicro": 3989,
      "##ati": 3990,
      "Ġtherefore": 3991,
      "Ġplans": 3992,
      "Ġnearly": 3993,
      "Ġsout": 3994,
      "##rast": 3995,
      "Ġple": 3996,
      "Ġbrothers": 3997,
      "##iant": 3998,
      "Ġhotel": 3999,
      "Ġdail": 4000,
      "##ises": 4001,
      "Ġmakes": 4002,
      "Ġwinner": 4003,
      "Ġcric": 4004,
      "##ysis": 4005,
      "Ġrot": 4006,
      "Ġrequire": 4007,
      "Ġscotland": 4008,
      "##gn": 4009,
      "Ġmunicipal": 4010,
      "##ato": 4011,
      "Ġ1960": 4012,
      "Ġjones": 4013,
      "##atively": 4014,
      "Ġprovides": 4015,
      "Ġbell": 4016,
      "Ġspirit": 4017,
      "Ġextra": 4018,
      "Ġemper": 4019,
      "Ġturned": 4020,
      "##etic": 4021,
      "Ġletter": 4022,
      "##gu": 4023,
      "Ġboston": 4024,
      "Ġ1944": 4025,
      "Ġcollect": 4026,
      "##read": 4027,
      "Ġ64": 4028,
      "Ġalbert": 4029,
      "Ġjoint": 4030,
      "Ġ39": 4031,
      "Ġadj": 4032,
      "##kins": 4033,
      "Ġok": 4034,
      "Ġsimp": 4035,
      "Ġcricket": 4036,
      "Ġcreek": 4037,
      "##zz": 4038,
      "Ġinside": 4039,
      "Ġislam": 4040,
      "Ġpack": 4041,
      "Ġsingles": 4042,
      "##gar": 4043,
      "Ġclin": 4044,
      "Ġshoot": 4045,
      "Ġfounder": 4046,
      "Ġsucceed": 4047,
      "Ġelectron": 4048,
      "##gl": 4049,
      "Ġships": 4050,
      "Ġcontemporary": 4051,
      "##house": 4052,
      "##shire": 4053,
      "Ġgreater": 4054,
      "Ġcampus": 4055,
      "##teen": 4056,
      "Ġhyd": 4057,
      "Ġdaily": 4058,
      "Ġauthority": 4059,
      "Ġproblems": 4060,
      "Ġcrew": 4061,
      "##fa": 4062,
      "Ġgraduated": 4063,
      "Ġissued": 4064,
      "##ule": 4065,
      "Ġresponsible": 4066,
      "Ġbass": 4067,
      "Ġoce": 4068,
      "Ġformerly": 4069,
      "##20": 4070,
      "Ġserve": 4071,
      "##writ": 4072,
      "Ġcovered": 4073,
      "Ġbob": 4074,
      "Ġinfluence": 4075,
      "Ġimpact": 4076,
      "##ÅĤ": 4077,
      "Ġapart": 4078,
      "Ġaffect": 4079,
      "Ġtower": 4080,
      "Ġconditions": 4081,
      "Ġproducts": 4082,
      "Ġsupre": 4083,
      "##chester": 4084,
      "Ġkil": 4085,
      "##ously": 4086,
      "##oo": 4087,
      "Ġenough": 4088,
      "Ġofficers": 4089,
      "Ġpoland": 4090,
      "Ġhockey": 4091,
      "##mann": 4092,
      "Ġrule": 4093,
      "Ġsubs": 4094,
      "Ġentertain": 4095,
      "##uten": 4096,
      "Ġliterature": 4097,
      "##inary": 4098,
      "Ġnearby": 4099,
      "Ġwhether": 4100,
      "Ġextended": 4101,
      "##burgh": 4102,
      "Ġelements": 4103,
      "Ġportug": 4104,
      "Ġleave": 4105,
      "Ġcapac": 4106,
      "Ġfreed": 4107,
      "Ġalongside": 4108,
      "Ġmetal": 4109,
      "Ġimper": 4110,
      "Ġjudge": 4111,
      "##itude": 4112,
      "Ġincorpor": 4113,
      "Ġwords": 4114,
      "Ġdia": 4115,
      "Ġjean": 4116,
      "##uries": 4117,
      "Ġvon": 4118,
      "Ġnewspaper": 4119,
      "Ġconsists": 4120,
      "Ġ48": 4121,
      "Ġyet": 4122,
      "Ġsail": 4123,
      "Ġ49": 4124,
      "Ġincreasing": 4125,
      "Ġmut": 4126,
      "##vement": 4127,
      "Ġmemorial": 4128,
      "Ġtam": 4129,
      "Ġlif": 4130,
      "Ġhind": 4131,
      "Ġwilliams": 4132,
      "Ġmig": 4133,
      "##une": 4134,
      "##ights": 4135,
      "Ġcandidate": 4136,
      "Ġoxford": 4137,
      "Ġfal": 4138,
      "Ġ1980s": 4139,
      "##nding": 4140,
      "Ġconcert": 4141,
      "Ġcub": 4142,
      "Ġmarine": 4143,
      "Ġaddress": 4144,
      "##ols": 4145,
      "Ġmanaged": 4146,
      "Ġdiscovered": 4147,
      "Ġdecla": 4148,
      "Ġguest": 4149,
      "Ġsettlement": 4150,
      "Ġcart": 4151,
      "Ġphilipp": 4152,
      "Ġtold": 4153,
      "Ġnucle": 4154,
      "Ġnecess": 4155,
      "Ġconstructed": 4156,
      "##abeth": 4157,
      "##gian": 4158,
      "##fect": 4159,
      "Ġwanted": 4160,
      "Ġwhole": 4161,
      "Ġphysical": 4162,
      "Ġjr": 4163,
      "Ġlinear": 4164,
      "##ulations": 4165,
      "Ġovers": 4166,
      "Ġexpla": 4167,
      "Ġsoldiers": 4168,
      "##nds": 4169,
      "Ġarrived": 4170,
      "Ġrose": 4171,
      "Ġpositive": 4172,
      "##dney": 4173,
      "Ġtransferred": 4174,
      "##phy": 4175,
      "Ġacademic": 4176,
      "Ġnaval": 4177,
      "Ġelev": 4178,
      "Ġaffairs": 4179,
      "Ġjohnson": 4180,
      "Ġmiles": 4181,
      "Ġpage": 4182,
      "Ġ1963": 4183,
      "##wide": 4184,
      "Ġasked": 4185,
      "##ping": 4186,
      "Ġobserv": 4187,
      "##gypt": 4188,
      "##bed": 4189,
      "##Ã§": 4190,
      "ĠÂ£": 4191,
      "Ġthir": 4192,
      "Ġmaxim": 4193,
      "Ġthr": 4194,
      "Ġfeel": 4195,
      "Ġfeaturing": 4196,
      "Ġbbc": 4197,
      "Ġcooper": 4198,
      "##ening": 4199,
      "Ġhund": 4200,
      "Ġlikely": 4201,
      "Ġemperor": 4202,
      "Ġkind": 4203,
      "Ġcharl": 4204,
      "Ġ1962": 4205,
      "Ġinitial": 4206,
      "Ġdecl": 4207,
      "Ġestate": 4208,
      "Ġsenate": 4209,
      "Ġcin": 4210,
      "Ġ20th": 4211,
      "Ġbang": 4212,
      "Ġgirls": 4213,
      "Ġped": 4214,
      "Ġresidents": 4215,
      "Ġneighbor": 4216,
      "Ġsaying": 4217,
      "Ġ43": 4218,
      "Ġfrancisco": 4219,
      "Ġtouch": 4220,
      "Ġga": 4221,
      "##mark": 4222,
      "Ġrenamed": 4223,
      "Ġbeach": 4224,
      "Ġsolo": 4225,
      "##ington": 4226,
      "Ġlevels": 4227,
      "##ersey": 4228,
      "##pher": 4229,
      "##Ð°": 4230,
      "Ġdirectly": 4231,
      "Ġberlin": 4232,
      "Ġweap": 4233,
      "##ansas": 4234,
      "Ġ1942": 4235,
      "Ġagreement": 4236,
      "Ġhero": 4237,
      "Ġwrest": 4238,
      "Ġthink": 4239,
      "Ġkent": 4240,
      "##orter": 4241,
      "Ġukra": 4242,
      "Ġmis": 4243,
      "##lah": 4244,
      "Ġprimarily": 4245,
      "Ġrequest": 4246,
      "##rid": 4247,
      "Ġnumbers": 4248,
      "Ġeld": 4249,
      "Ġ47": 4250,
      "Ġvac": 4251,
      "Ġegypt": 4252,
      "Ġmit": 4253,
      "##rey": 4254,
      "Ġwebsite": 4255,
      "Ġextre": 4256,
      "Ġforward": 4257,
      "Ġquality": 4258,
      "Ġdog": 4259,
      "Ġbac": 4260,
      "Ġtitled": 4261,
      "Ġreserve": 4262,
      "Ġcorporation": 4263,
      "##don": 4264,
      "Ġdemonst": 4265,
      "Ġjes": 4266,
      "Ġofficially": 4267,
      "Ġcru": 4268,
      "Ġshare": 4269,
      "Ġscene": 4270,
      "Ġeliz": 4271,
      "Ġsens": 4272,
      "##Ð¾": 4273,
      "Ġ51": 4274,
      "##adel": 4275,
      "Ġtable": 4276,
      "##hl": 4277,
      "Ġ1970s": 4278,
      "Ġvolun": 4279,
      "Ġjos": 4280,
      "Ġpolish": 4281,
      "Ġpakistan": 4282,
      "Ġappearances": 4283,
      "Ġmoving": 4284,
      "Ġactress": 4285,
      "Ġhundred": 4286,
      "Ġfirm": 4287,
      "Ġmas": 4288,
      "##zy": 4289,
      "Ġfast": 4290,
      "##umed": 4291,
      "Ġsort": 4292,
      "Ġrevealed": 4293,
      "##awa": 4294,
      "Ġsecondary": 4295,
      "##chen": 4296,
      "Ġtrue": 4297,
      "Ġhousing": 4298,
      "Ġrecover": 4299,
      "Ġopera": 4300,
      "##uce": 4301,
      "Ġcrown": 4302,
      "##je": 4303,
      "Ġmichigan": 4304,
      "Ġmurder": 4305,
      "Ġasia": 4306,
      "Ġ75": 4307,
      "Ġphilosoph": 4308,
      "Ġshortly": 4309,
      "Ġalexander": 4310,
      "Ġcolumbia": 4311,
      "##itan": 4312,
      "Ġgrowth": 4313,
      "Ġmorn": 4314,
      "##ji": 4315,
      "Ġseg": 4316,
      "Ġrugby": 4317,
      "Ġori": 4318,
      "Ġsquadron": 4319,
      "Ġtwenty": 4320,
      "Ġjersey": 4321,
      "Ġalbums": 4322,
      "Ġcomedy": 4323,
      "Ġ1961": 4324,
      "Ġidea": 4325,
      "##iately": 4326,
      "Ġscottish": 4327,
      "##istics": 4328,
      "Ġscholars": 4329,
      "Ġ1941": 4330,
      "##aya": 4331,
      "Ġcustom": 4332,
      "##ellig": 4333,
      "Ġmales": 4334,
      "##ira": 4335,
      "Ġbehav": 4336,
      "Ġparticipated": 4337,
      "Ġillust": 4338,
      "Ġlieuten": 4339,
      "Ġbern": 4340,
      "Ġbattal": 4341,
      "##ruction": 4342,
      "Ġasian": 4343,
      "Ġ1940": 4344,
      "Ġ1948": 4345,
      "Ġcounter": 4346,
      "Ġcitizens": 4347,
      "Ġdrive": 4348,
      "Ġprotect": 4349,
      "Ġtan": 4350,
      "Ġ300": 4351,
      "Ġimmediately": 4352,
      "Ġtreatment": 4353,
      "Ġfill": 4354,
      "Ġ178": 4355,
      "Ġdeputy": 4356,
      "Ġperman": 4357,
      "Ġshel": 4358,
      "##ray": 4359,
      "Ġscientific": 4360,
      "##ela": 4361,
      "Ġavenue": 4362,
      "##ensity": 4363,
      "##vert": 4364,
      "Ġbey": 4365,
      "Ġprojects": 4366,
      "Ġspread": 4367,
      "Ġeffects": 4368,
      "Ġsupreme": 4369,
      "Ġ1943": 4370,
      "##win": 4371,
      "##nam": 4372,
      "Ġdirection": 4373,
      "Ġohio": 4374,
      "##po": 4375,
      "Ġ1939": 4376,
      "Ġsab": 4377,
      "Ġsund": 4378,
      "Ġprominent": 4379,
      "##ias": 4380,
      "Ġscen": 4381,
      "Ġresist": 4382,
      "##dy": 4383,
      "##rich": 4384,
      "Ġmathem": 4385,
      "Ġagency": 4386,
      "Ġconducted": 4387,
      "Ġpurs": 4388,
      "Ġplanned": 4389,
      "Ġfloor": 4390,
      "Ġtypically": 4391,
      "Ġconstant": 4392,
      "Ġdistance": 4393,
      "Ġjacks": 4394,
      "Ġexam": 4395,
      "Ġ46": 4396,
      "##put": 4397,
      "Ġraces": 4398,
      "Ġhighly": 4399,
      "Ġimplement": 4400,
      "Ġgrant": 4401,
      "Ġring": 4402,
      "Ġnote": 4403,
      "Ġquestion": 4404,
      "Ġacting": 4405,
      "Ġformation": 4406,
      "Ġordered": 4407,
      "Ġdur": 4408,
      "##aped": 4409,
      "Ġdedicated": 4410,
      "Ġconne": 4411,
      "##gon": 4412,
      "Ġcrime": 4413,
      "Ġjob": 4414,
      "##hol": 4415,
      "Ġinfantry": 4416,
      "Ġgolden": 4417,
      "Ġsearch": 4418,
      "Ġ52": 4419,
      "##aka": 4420,
      "##resp": 4421,
      "Ġcontact": 4422,
      "Ġremoved": 4423,
      "Ġyellow": 4424,
      "Ġmusl": 4425,
      "Ġlady": 4426,
      "Ġ1956": 4427,
      "Ġ1946": 4428,
      "Ġproduce": 4429,
      "Ġlieutenant": 4430,
      "##tra": 4431,
      "Ġgrew": 4432,
      "##stein": 4433,
      "Ġcontinue": 4434,
      "##oned": 4435,
      "Ġgene": 4436,
      "Ġintellig": 4437,
      "Ġenem": 4438,
      "##Ã¡n": 4439,
      "Ġil": 4440,
      "Ġopportun": 4441,
      "Ġlot": 4442,
      "Ġmixed": 4443,
      "Ġscul": 4444,
      "Ġfleet": 4445,
      "Ġduke": 4446,
      "Ġintended": 4447,
      "Ġsemi": 4448,
      "Ġcoming": 4449,
      "##iga": 4450,
      "Ġelement": 4451,
      "Ġlies": 4452,
      "Ġconstitu": 4453,
      "Ġsmaller": 4454,
      "Ġfit": 4455,
      "Ġsydney": 4456,
      "Ġrare": 4457,
      "##reng": 4458,
      "##rupt": 4459,
      "Ġfish": 4460,
      "Ġrules": 4461,
      "Ġrailroad": 4462,
      "##ali": 4463,
      "Ġanalysis": 4464,
      "##secut": 4465,
      "Ġbrook": 4466,
      "Ġfootballer": 4467,
      "Ġentertainment": 4468,
      "Ġracing": 4469,
      "Ġfemales": 4470,
      "Ġcham": 4471,
      "Ġpotential": 4472,
      "Ġexchange": 4473,
      "ĠÃ©": 4474,
      "Ġfavor": 4475,
      "Ġ1958": 4476,
      "##uct": 4477,
      "Ġcommonly": 4478,
      "Ġprotection": 4479,
      "Ġ1990s": 4480,
      "##iary": 4481,
      "Ġdim": 4482,
      "Ġalle": 4483,
      "##kn": 4484,
      "Ġmap": 4485,
      "Ġ1959": 4486,
      "Ġ1960s": 4487,
      "Ġbasis": 4488,
      "Ġrepe": 4489,
      "Ġhong": 4490,
      "Ġkong": 4491,
      "##book": 4492,
      "Ġcomes": 4493,
      "Ġcapacity": 4494,
      "##Ã±": 4495,
      "##rical": 4496,
      "Ġhouseholds": 4497,
      "Ġbh": 4498,
      "Ġken": 4499,
      "Ġhorse": 4500,
      "Ġ55": 4501,
      "Ġdefeat": 4502,
      "Ġott": 4503,
      "Ġresident": 4504,
      "Ġbenef": 4505,
      "Ġ1950": 4506,
      "Ġcritical": 4507,
      "Ġcharge": 4508,
      "##ila": 4509,
      "Ġleadership": 4510,
      "Ġcorre": 4511,
      "Ġjackson": 4512,
      "Ġmom": 4513,
      "##thing": 4514,
      "Ġhour": 4515,
      "##ifying": 4516,
      "Ġfres": 4517,
      "Ġanton": 4518,
      "Ġviet": 4519,
      "Ġswe": 4520,
      "##eds": 4521,
      "Ġkenn": 4522,
      "Ġgeorgia": 4523,
      "Ġwithd": 4524,
      "Ġjoin": 4525,
      "##can": 4526,
      "Ġka": 4527,
      "##oe": 4528,
      "Ġskill": 4529,
      "Ġcompared": 4530,
      "Ġtree": 4531,
      "##astic": 4532,
      "Ġleaves": 4533,
      "Ġgiving": 4534,
      "Ġadvanced": 4535,
      "##emic": 4536,
      "Ġocean": 4537,
      "##ione": 4538,
      "Ġpremier": 4539,
      "Ġgrade": 4540,
      "##rad": 4541,
      "##ributed": 4542,
      "Ġtrial": 4543,
      "Ġquickly": 4544,
      "Ġbeaut": 4545,
      "Ġbott": 4546,
      "##cel": 4547,
      "Ġbod": 4548,
      "Ġ1947": 4549,
      "Ġwit": 4550,
      "Ġdispla": 4551,
      "Ġ1957": 4552,
      "##ogue": 4553,
      "Ġdestroyed": 4554,
      "Ġdivided": 4555,
      "Ġsciences": 4556,
      "Ġslow": 4557,
      "Ġsplit": 4558,
      "Ġstreng": 4559,
      "Ġrepresentatives": 4560,
      "Ġorganized": 4561,
      "Ġpul": 4562,
      "##iles": 4563,
      "##inian": 4564,
      "Ġreviews": 4565,
      "Ġpoly": 4566,
      "Ġoperating": 4567,
      "Ġbecomes": 4568,
      "Ġreach": 4569,
      "Ġowner": 4570,
      "Ġelizabeth": 4571,
      "Ġparal": 4572,
      "##isters": 4573,
      "Ġassigned": 4574,
      "Ġproblem": 4575,
      "Ġleaders": 4576,
      "Ġcombined": 4577,
      "Ġgarden": 4578,
      "##more": 4579,
      "Ġari": 4580,
      "Ġsteel": 4581,
      "Ġlabour": 4582,
      "Ġrespectively": 4583,
      "##itage": 4584,
      "Ġprobably": 4585,
      "Ġrome": 4586,
      "Ġlanguages": 4587,
      "##watch": 4588,
      "##etts": 4589,
      "Ġargent": 4590,
      "Ġactivity": 4591,
      "Ġmarsh": 4592,
      "##imed": 4593,
      "##ua": 4594,
      "##oor": 4595,
      "Ġshop": 4596,
      "Ġanne": 4597,
      "##mas": 4598,
      "Ġcoup": 4599,
      "Ġprevent": 4600,
      "Ġdor": 4601,
      "##akers": 4602,
      "Ġtrail": 4603,
      "Ġdaniel": 4604,
      "Ġker": 4605,
      "##ech": 4606,
      "Ġcerem": 4607,
      "##onia": 4608,
      "Ġkir": 4609,
      "Ġliberal": 4610,
      "Ġability": 4611,
      "Ġsymb": 4612,
      "##ski": 4613,
      "Ġadvent": 4614,
      "Ġpier": 4615,
      "Ġefforts": 4616,
      "##10": 4617,
      "##oses": 4618,
      "Ġrecently": 4619,
      "##onto": 4620,
      "##uan": 4621,
      "##worth": 4622,
      "##iring": 4623,
      "Ġcaptured": 4624,
      "Ġcav": 4625,
      "Ġolympic": 4626,
      "##izes": 4627,
      "Ġsle": 4628,
      "Ġethn": 4629,
      "Ġdraft": 4630,
      "Ġsculpt": 4631,
      "Ġsher": 4632,
      "Ġscale": 4633,
      "Ġsources": 4634,
      "Ġcry": 4635,
      "Ġprec": 4636,
      "##action": 4637,
      "Ġthous": 4638,
      "Ġheadquarters": 4639,
      "Ġdiam": 4640,
      "Ġrol": 4641,
      "Ġelimin": 4642,
      "Ġepisodes": 4643,
      "Ġtay": 4644,
      "Ġpurchased": 4645,
      "Ġira": 4646,
      "Ġapproach": 4647,
      "##wing": 4648,
      "Ġtechnical": 4649,
      "Ġthousand": 4650,
      "##iter": 4651,
      "Ġfigure": 4652,
      "Ġsales": 4653,
      "##achus": 4654,
      "Ġpublishing": 4655,
      "Ġlov": 4656,
      "Ġcommunities": 4657,
      "Ġwars": 4658,
      "Ġboys": 4659,
      "##lav": 4660,
      "Ġlt": 4661,
      "Ġmorning": 4662,
      "Ġknowledge": 4663,
      "Ġcrimin": 4664,
      "##rap": 4665,
      "Ġhosted": 4666,
      "Ġvent": 4667,
      "Ġmachine": 4668,
      "Ġ3rd": 4669,
      "Ġvictoria": 4670,
      "Ġjeff": 4671,
      "Ġsons": 4672,
      "##thur": 4673,
      "Ġheritage": 4674,
      "Ġcert": 4675,
      "Ġ177": 4676,
      "##ube": 4677,
      "##gely": 4678,
      "Ġsr": 4679,
      "##inois": 4680,
      "Ġfacilities": 4681,
      "Ġnominated": 4682,
      "Ġlett": 4683,
      "Ġnam": 4684,
      "Ġcars": 4685,
      "Ġimmig": 4686,
      "Ġ1955": 4687,
      "##ella": 4688,
      "Ġpressure": 4689,
      "Ġah": 4690,
      "Ġequipment": 4691,
      "Ġ1952": 4692,
      "Ġneeded": 4693,
      "Ġranked": 4694,
      "##ding": 4695,
      "Ġformat": 4696,
      "Ġmort": 4697,
      "##respond": 4698,
      "Ġcompil": 4699,
      "##ulf": 4700,
      "##town": 4701,
      "Ġcorrespond": 4702,
      "Ġclubs": 4703,
      "Ġexperiment": 4704,
      "Ġinhab": 4705,
      "Ġts": 4706,
      "Ġcritics": 4707,
      "Ġprincipal": 4708,
      "Ġsoftware": 4709,
      "Ġpolitics": 4710,
      "##tery": 4711,
      "Ġdeclared": 4712,
      "Ġgram": 4713,
      "##uted": 4714,
      "Ġ54": 4715,
      "Ġrand": 4716,
      "Ġtypes": 4717,
      "Ġthings": 4718,
      "Ġimperial": 4719,
      "Ġnin": 4720,
      "Ġinstrument": 4721,
      "Ġadopted": 4722,
      "##mad": 4723,
      "Ġsafety": 4724,
      "Ġillinois": 4725,
      "Ġattention": 4726,
      "Ġfighting": 4727,
      "Ġabd": 4728,
      "Ġturk": 4729,
      "Ġaccepted": 4730,
      "##ancy": 4731,
      "Ġfine": 4732,
      "Ġdial": 4733,
      "Ġ1949": 4734,
      "Ġvotes": 4735,
      "##stone": 4736,
      "Ġflag": 4737,
      "Ġfell": 4738,
      "Ġconsum": 4739,
      "Ġdipl": 4740,
      "##ighter": 4741,
      "##lies": 4742,
      "Ġyard": 4743,
      "Ġsexual": 4744,
      "##iced": 4745,
      "Ġmah": 4746,
      "##aging": 4747,
      "Ġmassachus": 4748,
      "Ġeg": 4749,
      "Ġrod": 4750,
      "##ex": 4751,
      "Ġfc": 4752,
      "Ġdesignated": 4753,
      "Ġspons": 4754,
      "Ġapplied": 4755,
      "Ġrepresentative": 4756,
      "##ropol": 4757,
      "Ġmedian": 4758,
      "Ġadvis": 4759,
      "Ġlas": 4760,
      "Ġsixth": 4761,
      "Ġfox": 4762,
      "##het": 4763,
      "Ġ1954": 4764,
      "Ġmassachusetts": 4765,
      "Ġbc": 4766,
      "Ġsud": 4767,
      "Ġny": 4768,
      "Ġindependence": 4769,
      "##vard": 4770,
      "Ġqueens": 4771,
      "Ġkitt": 4772,
      "Ġfix": 4773,
      "Ġestimated": 4774,
      "Ġconfirmed": 4775,
      "Ġcambridge": 4776,
      "##Ð¸": 4777,
      "Ġagreed": 4778,
      "Ġ53": 4779,
      "Ġcontent": 4780,
      "##icted": 4781,
      "Ġoffer": 4782,
      "Ġpurpose": 4783,
      "##sky": 4784,
      "Ġmedicine": 4785,
      "Ġdistingu": 4786,
      "##rate": 4787,
      "Ġdoub": 4788,
      "##och": 4789,
      "##ault": 4790,
      "Ġmind": 4791,
      "Ġlew": 4792,
      "Ġwear": 4793,
      "##sa": 4794,
      "Ġmax": 4795,
      "Ġarchitecture": 4796,
      "Ġmm": 4797,
      "Ġlargely": 4798,
      "Ġinspired": 4799,
      "Ġwidely": 4800,
      "Ġjon": 4801,
      "Ġcombat": 4802,
      "##hens": 4803,
      "##ologist": 4804,
      "Ġfinals": 4805,
      "Ġusa": 4806,
      "##rics": 4807,
      "Ġobl": 4808,
      "Ġspot": 4809,
      "Ġwant": 4810,
      "Ġalt": 4811,
      "Ġnic": 4812,
      "Ġpainting": 4813,
      "Ġaband": 4814,
      "##arm": 4815,
      "ĠâĢĺ": 4816,
      "Ġ1953": 4817,
      "Ġgained": 4818,
      "Ġ1918": 4819,
      "Ġplants": 4820,
      "##uled": 4821,
      "##oul": 4822,
      "Ġsuffered": 4823,
      "Ġax": 4824,
      "Ġjoe": 4825,
      "Ġkal": 4826,
      "Ġjazz": 4827,
      "Ġlege": 4828,
      "Ġspect": 4829,
      "Ġcreation": 4830,
      "Ġbit": 4831,
      "Ġdamage": 4832,
      "Ġpaint": 4833,
      "Ġgallery": 4834,
      "Ġbarb": 4835,
      "Ġbil": 4836,
      "Ġgraph": 4837,
      "Ġcondition": 4838,
      "Ġdisease": 4839,
      "Ġyounger": 4840,
      "##imb": 4841,
      "Ġgrowing": 4842,
      "Ġserious": 4843,
      "Ġimage": 4844,
      "Ġorchestra": 4845,
      "Ġzone": 4846,
      "Ġdistribution": 4847,
      "Ġcalc": 4848,
      "Ġaccompan": 4849,
      "##ching": 4850,
      "##sen": 4851,
      "Ġserves": 4852,
      "Ġmile": 4853,
      "Ġaffil": 4854,
      "Ġfollows": 4855,
      "Ġtoronto": 4856,
      "Ġroles": 4857,
      "Ġspacewatch": 4858,
      "Ġgeneration": 4859,
      "Ġcinem": 4860,
      "Ġyards": 4861,
      "##ounds": 4862,
      "Ġresources": 4863,
      "##rovers": 4864,
      "Ġenvironmental": 4865,
      "Ġ56": 4866,
      "Ġtraffic": 4867,
      "Ġaer": 4868,
      "Ġhay": 4869,
      "Ġteaching": 4870,
      "Ġalone": 4871,
      "Ġoccurred": 4872,
      "##adelph": 4873,
      "##encies": 4874,
      "Ġsamp": 4875,
      "##ora": 4876,
      "Ġpriest": 4877,
      "Ġcem": 4878,
      "Ġconcent": 4879,
      "Ġstorm": 4880,
      "Ġnaz": 4881,
      "##rence": 4882,
      "Ġpresence": 4883,
      "Ġexhibition": 4884,
      "Ġmodels": 4885,
      "Ġencoura": 4886,
      "Ġmentioned": 4887,
      "Ġminute": 4888,
      "Ġmarg": 4889,
      "##lers": 4890,
      "Ġrab": 4891,
      "##agon": 4892,
      "##war": 4893,
      "##mission": 4894,
      "##lict": 4895,
      "Ġstrugg": 4896,
      "Ġcontrovers": 4897,
      "Ġali": 4898,
      "Ġparties": 4899,
      "Ġpartn": 4900,
      "Ġtheater": 4901,
      "##rier": 4902,
      "Ġrid": 4903,
      "##iat": 4904,
      "Ġprep": 4905,
      "Ġarms": 4906,
      "Ġrecomm": 4907,
      "Ġwindows": 4908,
      "Ġreports": 4909,
      "Ġtrop": 4910,
      "Ġphiladelph": 4911,
      "Ġ400": 4912,
      "##light": 4913,
      "Ġstarring": 4914,
      "##gal": 4915,
      "Ġdivers": 4916,
      "Ġcook": 4917,
      "Ġweight": 4918,
      "Ġtaught": 4919,
      "Ġjur": 4920,
      "Ġexpanded": 4921,
      "Ġtwice": 4922,
      "##rane": 4923,
      "Ġvess": 4924,
      "##inity": 4925,
      "Ġmountains": 4926,
      "Ġconclud": 4927,
      "##onents": 4928,
      "Ġ1951": 4929,
      "Ġsom": 4930,
      "Ġfreedom": 4931,
      "Ġnewly": 4932,
      "##kee": 4933,
      "Ġframe": 4934,
      "Ġsanta": 4935,
      "Ġlearning": 4936,
      "Ġresulted": 4937,
      "Ġkorea": 4938,
      "Ġreduced": 4939,
      "Ġ57": 4940,
      "##sw": 4941,
      "Ġtrav": 4942,
      "Ġdeliv": 4943,
      "Ġphiladelphia": 4944,
      "Ġtransform": 4945,
      "##uts": 4946,
      "Ġactually": 4947,
      "##ressed": 4948,
      "##iber": 4949,
      "Ġscoring": 4950,
      "Ġopposition": 4951,
      "Ġrein": 4952,
      "Ġretire": 4953,
      "Ġhan": 4954,
      "##bourne": 4955,
      "Ġidentified": 4956,
      "Ġoffers": 4957,
      "Ġglass": 4958,
      "Ġarmed": 4959,
      "##ima": 4960,
      "Ġlemmon": 4961,
      "Ġfelt": 4962,
      "Ġbronze": 4963,
      "Ġfiction": 4964,
      "Ġbeyond": 4965,
      "Ġprint": 4966,
      "Ġprice": 4967,
      "Ġsupply": 4968,
      "Ġpilot": 4969,
      "Ġlect": 4970,
      "Ġhands": 4971,
      "Ġpattern": 4972,
      "Ġala": 4973,
      "##Ðµ": 4974,
      "Ġbaron": 4975,
      "Ġvirt": 4976,
      "Ġscript": 4977,
      "ĠÎ": 4978,
      "Ġbillion": 4979,
      "Ġdocumentary": 4980,
      "Ġconstitution": 4981,
      "Ġpiano": 4982,
      "Ġchron": 4983,
      "Ġcancer": 4984,
      "Ġresulting": 4985,
      "##ibly": 4986,
      "Ġswedish": 4987,
      "Ġ1936": 4988,
      "Ġconduct": 4989,
      "Ġminim": 4990,
      "##rance": 4991,
      "Ġpaid": 4992,
      "Ġletters": 4993,
      "##uge": 4994,
      "Ġpy": 4995,
      "Ġexpected": 4996,
      "Ġrapid": 4997,
      "Ġlosing": 4998,
      "Ġtel": 4999,
      "Ġmathemat": 5000,
      "##attle": 5001,
      "Ġburied": 5002,
      "Ġlaws": 5003,
      "Ġclimate": 5004,
      "Ġnether": 5005,
      "##aling": 5006,
      "Ġorganizations": 5007,
      "Ġstor": 5008,
      "##cend": 5009,
      "Ġrecognized": 5010,
      "Ġproceed": 5011,
      "Ġreturning": 5012,
      "##ordin": 5013,
      "##Ã©e": 5014,
      "Ġvic": 5015,
      "##urer": 5016,
      "Ġfacult": 5017,
      "##oman": 5018,
      "Ġagent": 5019,
      "Ġunkn": 5020,
      "Ġbrigade": 5021,
      "Ġrecommend": 5022,
      "Ġwilson": 5023,
      "Ġspr": 5024,
      "Ġatlantic": 5025,
      "Ġproviding": 5026,
      "Ġfolk": 5027,
      "Ġbattalion": 5028,
      "Ġwed": 5029,
      "Ġcouple": 5030,
      "##ricts": 5031,
      "Ġwel": 5032,
      "##ni": 5033,
      "Ġoak": 5034,
      "Ġreserv": 5035,
      "Ġgoes": 5036,
      "Ġ1920": 5037,
      "Ġdistinct": 5038,
      "Ġ1938": 5039,
      "Ġbure": 5040,
      "Ġfacility": 5041,
      "Ġrisk": 5042,
      "Ġtitles": 5043,
      "##estic": 5044,
      "##works": 5045,
      "Ġpositions": 5046,
      "Ġgranted": 5047,
      "Ġpad": 5048,
      "##arent": 5049,
      "Ġholy": 5050,
      "Ġot": 5051,
      "Ġsomething": 5052,
      "##enger": 5053,
      "Ġexisting": 5054,
      "Ġofficials": 5055,
      "Ġ58": 5056,
      "Ġauthorities": 5057,
      "Ġadvoc": 5058,
      "Ġseek": 5059,
      "Ġfeet": 5060,
      "Ġcrow": 5061,
      "Ġclaims": 5062,
      "Ġrub": 5063,
      "##oty": 5064,
      "Ġtheme": 5065,
      "Ġpalace": 5066,
      "##ocks": 5067,
      "Ġmaterials": 5068,
      "Ġfm": 5069,
      "Ġbasic": 5070,
      "Ġconvers": 5071,
      "##like": 5072,
      "##akh": 5073,
      "Ġsites": 5074,
      "Ġnormal": 5075,
      "Ġnorthwest": 5076,
      "##Ã¸": 5077,
      "Ġmeasure": 5078,
      "Ġconflict": 5079,
      "Ġbegins": 5080,
      "Ġvocal": 5081,
      "##ras": 5082,
      "Ġconnected": 5083,
      "Ġtrains": 5084,
      "Ġultim": 5085,
      "##ivity": 5086,
      "##olved": 5087,
      "Ġcant": 5088,
      "Ġcommunist": 5089,
      "Ġchamber": 5090,
      "Ġrestaur": 5091,
      "Ġattacks": 5092,
      "Ġserb": 5093,
      "Ġkid": 5094,
      "Ġslight": 5095,
      "Ġmetropol": 5096,
      "Ġreceive": 5097,
      "Ġdin": 5098,
      "##itable": 5099,
      "##onent": 5100,
      "Ġperformances": 5101,
      "##omy": 5102,
      "##igen": 5103,
      "##water": 5104,
      "Ġplanning": 5105,
      "Ġkel": 5106,
      "Ġsays": 5107,
      "##no": 5108,
      "Ġpropos": 5109,
      "Ġdub": 5110,
      "Ġsurrounding": 5111,
      "Ġmaria": 5112,
      "Ġseats": 5113,
      "##gra": 5114,
      "Ġcells": 5115,
      "Ġperforming": 5116,
      "Ġkept": 5117,
      "##bit": 5118,
      "Ġunknown": 5119,
      "Ġfinish": 5120,
      "Ġfame": 5121,
      "Ġcontinues": 5122,
      "Ġye": 5123,
      "Ġbag": 5124,
      "##ova": 5125,
      "Ġconvention": 5126,
      "##itled": 5127,
      "Ġkorean": 5128,
      "Ġpartner": 5129,
      "Ġdistricts": 5130,
      "Ġmarked": 5131,
      "Ġarthur": 5132,
      "##osen": 5133,
      "Ġregions": 5134,
      "##iy": 5135,
      "Ġresc": 5136,
      "Ġclassical": 5137,
      "Ġsoutheast": 5138,
      "##fe": 5139,
      "Ġdefence": 5140,
      "##inson": 5141,
      "Ġ1937": 5142,
      "Ġmemory": 5143,
      "Ġward": 5144,
      "Ġunique": 5145,
      "##kh": 5146,
      "Ġexped": 5147,
      "Ġgang": 5148,
      "Ġtowns": 5149,
      "Ġarrested": 5150,
      "Ġtai": 5151,
      "Ġexpans": 5152,
      "Ġdefined": 5153,
      "Ġreference": 5154,
      "Ġpiece": 5155,
      "Ġmike": 5156,
      "Ġ59": 5157,
      "Ġkim": 5158,
      "Ġintegr": 5159,
      "Ġgran": 5160,
      "Ġunc": 5161,
      "Ġgives": 5162,
      "##eland": 5163,
      "##oted": 5164,
      "Ġcannot": 5165,
      "Ġflood": 5166,
      "Ġtaylor": 5167,
      "Ġrear": 5168,
      "Ġtells": 5169,
      "Ġchallenge": 5170,
      "Ġtrip": 5171,
      "Ġsuggested": 5172,
      "Ġeducational": 5173,
      "Ġobtained": 5174,
      "Ġ1914": 5175,
      "##wise": 5176,
      "Ġvolunte": 5177,
      "Ġcategory": 5178,
      "Ġliterary": 5179,
      "##icient": 5180,
      "Ġdecor": 5181,
      "Ġdensity": 5182,
      "Ġ1919": 5183,
      "##heim": 5184,
      "Ġallows": 5185,
      "Ġfederation": 5186,
      "Ġbes": 5187,
      "Ġinjury": 5188,
      "Ġfat": 5189,
      "Ġsides": 5190,
      "##onym": 5191,
      "Ġinternet": 5192,
      "##any": 5193,
      "Ġfields": 5194,
      "Ġfully": 5195,
      "Ġeffort": 5196,
      "Ġadvance": 5197,
      "##ez": 5198,
      "Ġbond": 5199,
      "##aces": 5200,
      "Ġsituated": 5201,
      "Ġshowed": 5202,
      "Ġclassic": 5203,
      "##icks": 5204,
      "Ġadvert": 5205,
      "Ġconservative": 5206,
      "##Ñģ": 5207,
      "Ġcore": 5208,
      "Ġontar": 5209,
      "##met": 5210,
      "Ġacts": 5211,
      "Ġandrew": 5212,
      "Ġedge": 5213,
      "Ġaccident": 5214,
      "Ġky": 5215,
      "Ġsin": 5216,
      "Ġontario": 5217,
      "Ġcha": 5218,
      "##ographic": 5219,
      "Ġtall": 5220,
      "Ġnetherlands": 5221,
      "Ġrise": 5222,
      "##kes": 5223,
      "Ġeconomy": 5224,
      "Ġll": 5225,
      "Ġtried": 5226,
      "Ġpublication": 5227,
      "Ġstephen": 5228,
      "Ġutil": 5229,
      "Ġboat": 5230,
      "Ġwheel": 5231,
      "Ġlegislative": 5232,
      "Ġloan": 5233,
      "Ġdefin": 5234,
      "Ġnuclear": 5235,
      "Ġintelligence": 5236,
      "##orro": 5237,
      "Ġrough": 5238,
      "##len": 5239,
      "Ġton": 5240,
      "Ġalf": 5241,
      "##opher": 5242,
      "Ġcemet": 5243,
      "Ġmarc": 5244,
      "Ġcemetery": 5245,
      "Ġsteam": 5246,
      "Ġphase": 5247,
      "Ġetc": 5248,
      "Ġtu": 5249,
      "Ġoccasion": 5250,
      "Ġallowing": 5251,
      "Ġsust": 5252,
      "Ġfigures": 5253,
      "Ġiraq": 5254,
      "Ġpromotion": 5255,
      "Ġsimply": 5256,
      "Ġ1930": 5257,
      "Ġfalls": 5258,
      "##ÑĢ": 5259,
      "##urb": 5260,
      "##ti": 5261,
      "Ġentry": 5262,
      "Ġ1917": 5263,
      "Ġgil": 5264,
      "Ġpermanent": 5265,
      "Ġ4th": 5266,
      "Ġanimals": 5267,
      "Ġextend": 5268,
      "##yes": 5269,
      "Ġeye": 5270,
      "Ġroof": 5271,
      "Ġhydro": 5272,
      "Ġdism": 5273,
      "Ġpresidential": 5274,
      "Ġflying": 5275,
      "Ġmexican": 5276,
      "Ġexcl": 5277,
      "##pton": 5278,
      "Ġsituation": 5279,
      "Ġsubsequent": 5280,
      "Ġversions": 5281,
      "##ographer": 5282,
      "Ġraj": 5283,
      "Ġalternative": 5284,
      "Ġpoetry": 5285,
      "##kin": 5286,
      "Ġpowers": 5287,
      "Ġconsult": 5288,
      "Ġstraight": 5289,
      "Ġnotes": 5290,
      "##see": 5291,
      "Ġreading": 5292,
      "##mes": 5293,
      "Ġwr": 5294,
      "Ġsucceeded": 5295,
      "Ġcorner": 5296,
      "Ġoldest": 5297,
      "Ġfans": 5298,
      "Ġ66": 5299,
      "Ġchris": 5300,
      "Ġattorn": 5301,
      "##ighth": 5302,
      "Ġdetect": 5303,
      "Ġultimately": 5304,
      "Ġclasses": 5305,
      "Ġsupporting": 5306,
      "##hr": 5307,
      "Ġign": 5308,
      "##zech": 5309,
      "Ġchosen": 5310,
      "Ġfreder": 5311,
      "Ġclar": 5312,
      "Ġdang": 5313,
      "Ġkit": 5314,
      "Ġadapt": 5315,
      "Ġcompletely": 5316,
      "Ġcold": 5317,
      "Ġending": 5318,
      "##illery": 5319,
      "Ġ1935": 5320,
      "##itzer": 5321,
      "Ġcriminal": 5322,
      "Ġvillages": 5323,
      "Ġbackground": 5324,
      "Ġ150": 5325,
      "Ġvocals": 5326,
      "Ġcommissioned": 5327,
      "Ġdv": 5328,
      "Ġenjo": 5329,
      "Ġchoice": 5330,
      "##hew": 5331,
      "##eman": 5332,
      "Ġfaculty": 5333,
      "##amin": 5334,
      "Ġamend": 5335,
      "Ġsel": 5336,
      "##rant": 5337,
      "Ġaudience": 5338,
      "##30": 5339,
      "Ġpair": 5340,
      "Ġprogramme": 5341,
      "Ġnep": 5342,
      "##asty": 5343,
      "Ġnap": 5344,
      "##bra": 5345,
      "Ġaired": 5346,
      "Ġeffective": 5347,
      "##ucky": 5348,
      "Ġjam": 5349,
      "Ġ62": 5350,
      "Ġgab": 5351,
      "Ġcreating": 5352,
      "##Äį": 5353,
      "Ġczech": 5354,
      "Ġsimple": 5355,
      "Ġ*": 5356,
      "Ġeag": 5357,
      "Ġpublisher": 5358,
      "Ġunable": 5359,
      "Ġarchae": 5360,
      "Ġcris": 5361,
      "Ġsense": 5362,
      "Ġagg": 5363,
      "Ġorth": 5364,
      "Ġfash": 5365,
      "Ġengineer": 5366,
      "Ġaid": 5367,
      "Ġhills": 5368,
      "##sey": 5369,
      "##mont": 5370,
      "##oir": 5371,
      "##utional": 5372,
      "Ġalliance": 5373,
      "Ġsnow": 5374,
      "Ġmeant": 5375,
      "##mod": 5376,
      "Ġbillboard": 5377,
      "Ġtropical": 5378,
      "Ġcontain": 5379,
      "Ġprovinc": 5380,
      "Ġcolonel": 5381,
      "Ġ1933": 5382,
      "Ġphilosophy": 5383,
      "##unt": 5384,
      "##ilton": 5385,
      "Ġbudd": 5386,
      "Ġnortheast": 5387,
      "##iday": 5388,
      "Ġfresh": 5389,
      "##pass": 5390,
      "Ġaged": 5391,
      "Ġfounding": 5392,
      "Ġoccupied": 5393,
      "Ġstrike": 5394,
      "Ġinsur": 5395,
      "Ġ1900": 5396,
      "##wal": 5397,
      "Ġvehicle": 5398,
      "Ġholds": 5399,
      "Ġkur": 5400,
      "Ġron": 5401,
      "Ġbru": 5402,
      "Ġaspect": 5403,
      "Ġsets": 5404,
      "Ġchemical": 5405,
      "Ġ1929": 5406,
      "Ġreligion": 5407,
      "Ġunf": 5408,
      "Ġindones": 5409,
      "Ġlev": 5410,
      "Ġsche": 5411,
      "##aug": 5412,
      "Ġdavis": 5413,
      "Ġinters": 5414,
      "Ġstrateg": 5415,
      "Ġcow": 5416,
      "Ġarticles": 5417,
      "##ishes": 5418,
      "##umes": 5419,
      "##rel": 5420,
      "Ġapproved": 5421,
      "##engers": 5422,
      "Ġfaith": 5423,
      "Ġnecessary": 5424,
      "##aret": 5425,
      "Ġphilip": 5426,
      "Ġrow": 5427,
      "##Ã£": 5428,
      "Ġkick": 5429,
      "Ġportion": 5430,
      "##ev": 5431,
      "Ġmosc": 5432,
      "Ġachieved": 5433,
      "Ġswim": 5434,
      "Ġemerg": 5435,
      "Ġbrad": 5436,
      "Ġdomestic": 5437,
      "Ġlind": 5438,
      "##eller": 5439,
      "Ġsky": 5440,
      "Ġmethods": 5441,
      "Ġnarrow": 5442,
      "##Ð½": 5443,
      "Ġspok": 5444,
      "Ġanimal": 5445,
      "Ġtail": 5446,
      "##itors": 5447,
      "Ġinternal": 5448,
      "Ġsweden": 5449,
      "Ġfrequently": 5450,
      "Ġbou": 5451,
      "Ġwins": 5452,
      "Ġneighborhood": 5453,
      "Ġtry": 5454,
      "Ġpand": 5455,
      "Ġconcer": 5456,
      "Ġross": 5457,
      "##oren": 5458,
      "Ġcomposer": 5459,
      "##iser": 5460,
      "Ġgraduate": 5461,
      "Ġpi": 5462,
      "##athan": 5463,
      "Ġbought": 5464,
      "Ġgreg": 5465,
      "Ġguns": 5466,
      "Ġleon": 5467,
      "Ġinterior": 5468,
      "Ġprepar": 5469,
      "Ġcolonial": 5470,
      "Ġgi": 5471,
      "Ġspecif": 5472,
      "Ġtrees": 5473,
      "Ġvisual": 5474,
      "Ġmerch": 5475,
      "Ġinvestigation": 5476,
      "Ġrefused": 5477,
      "Ġattempts": 5478,
      "Ġlewis": 5479,
      "Ġrelatively": 5480,
      "Ġ1928": 5481,
      "Ġweather": 5482,
      "Ġmatter": 5483,
      "##adesh": 5484,
      "Ġseem": 5485,
      "##ruit": 5486,
      "Ġrespond": 5487,
      "Ġvehicles": 5488,
      "Ġdanc": 5489,
      "Ġ1950s": 5490,
      "Ġpros": 5491,
      "##una": 5492,
      "Ġstudios": 5493,
      "##ci": 5494,
      "Ġwhy": 5495,
      "Ġsector": 5496,
      "Ġmes": 5497,
      "Ġadult": 5498,
      "Ġelector": 5499,
      "Ġagricultural": 5500,
      "Ġfeed": 5501,
      "Ġsteve": 5502,
      "##ulate": 5503,
      "Ġcompar": 5504,
      "Ġfashion": 5505,
      "Ġfuel": 5506,
      "Ġshared": 5507,
      "Ġmaximum": 5508,
      "Ġamericans": 5509,
      "Ġquant": 5510,
      "Ġhabit": 5511,
      "Ġ99": 5512,
      "Ġkilling": 5513,
      "Ġresear": 5514,
      "Ġtank": 5515,
      "Ġtas": 5516,
      "Ġbroke": 5517,
      "Ġsocorro": 5518,
      "Ġsad": 5519,
      "Ġexpansion": 5520,
      "Ġidentity": 5521,
      "Ġkhan": 5522,
      "Ġiniti": 5523,
      "Ġfant": 5524,
      "##jan": 5525,
      "Ġworth": 5526,
      "Ġ1934": 5527,
      "Ġdoor": 5528,
      "Ġscheduled": 5529,
      "Ġpione": 5530,
      "Ġfactory": 5531,
      "##weight": 5532,
      "Ġapplication": 5533,
      "Ġspeech": 5534,
      "Ġactions": 5535,
      "Ġfought": 5536,
      "Ġtend": 5537,
      "Ġflat": 5538,
      "Ġdream": 5539,
      "##ng": 5540,
      "Ġsettled": 5541,
      "Ġandre": 5542,
      "Ġpowerful": 5543,
      "Ġreject": 5544,
      "Ġwriters": 5545,
      "Ġnas": 5546,
      "##bro": 5547,
      "Ġnegot": 5548,
      "Ġ61": 5549,
      "Ġheat": 5550,
      "##lace": 5551,
      "##ih": 5552,
      "Ġhart": 5553,
      "Ġstream": 5554,
      "Ġwound": 5555,
      "Ġcontaining": 5556,
      "Ġprovincial": 5557,
      "Ġgrey": 5558,
      "Ġpartnership": 5559,
      "Ġattra": 5560,
      "Ġpav": 5561,
      "Ġweekly": 5562,
      "Ġpope": 5563,
      "Ġfear": 5564,
      "Ġ68": 5565,
      "##iable": 5566,
      "Ġstanding": 5567,
      "Ġenemy": 5568,
      "Ġmetropolitan": 5569,
      "Ġadmir": 5570,
      "##onic": 5571,
      "Ġholding": 5572,
      "Ġattempted": 5573,
      "Ġreceiving": 5574,
      "Ġmoscow": 5575,
      "Ġfocused": 5576,
      "Ġlaunch": 5577,
      "Ġku": 5578,
      "Ġ72": 5579,
      "Ġattacked": 5580,
      "Ġ176": 5581,
      "Ġentitled": 5582,
      "Ġartillery": 5583,
      "Ġaqu": 5584,
      "Ġcape": 5585,
      "Ġbos": 5586,
      "Ġfu": 5587,
      "Ġapparent": 5588,
      "##otic": 5589,
      "Ġhorn": 5590,
      "Ġcircuit": 5591,
      "Ġpin": 5592,
      "Ġmol": 5593,
      "Ġvisited": 5594,
      "Ġunlike": 5595,
      "##ables": 5596,
      "##writer": 5597,
      "Ġnob": 5598,
      "Ġbull": 5599,
      "Ġsetting": 5600,
      "##iques": 5601,
      "Ġ1922": 5602,
      "Ġlam": 5603,
      "Ġlyrics": 5604,
      "Ġ1932": 5605,
      "Ġkings": 5606,
      "Ġmulti": 5607,
      "Ġgree": 5608,
      "Ġdal": 5609,
      "Ġkam": 5610,
      "##time": 5611,
      "Ġinstitutions": 5612,
      "Ġcopies": 5613,
      "Ġwolf": 5614,
      "Ġjournalist": 5615,
      "Ġfaced": 5616,
      "Ġ76": 5617,
      "Ġow": 5618,
      "Ġguide": 5619,
      "Ġ95": 5620,
      "Ġtreaty": 5621,
      "Ġ1924": 5622,
      "Ġshr": 5623,
      "Ġequal": 5624,
      "Ġrepresenting": 5625,
      "Ġsoccer": 5626,
      "##wart": 5627,
      "##Ã¼r": 5628,
      "Ġgam": 5629,
      "##bl": 5630,
      "Ġsouthwest": 5631,
      "##ika": 5632,
      "Ġintroduction": 5633,
      "Ġveter": 5634,
      "Ġconsequ": 5635,
      "##hedral": 5636,
      "Ġdiplom": 5637,
      "Ġdropped": 5638,
      "Ġmelbourne": 5639,
      "Ġ67": 5640,
      "Ġmast": 5641,
      "Ġconverted": 5642,
      "##zo": 5643,
      "Ġhou": 5644,
      "Ġtwel": 5645,
      "Ġextensive": 5646,
      "Ġarc": 5647,
      "Ġwhit": 5648,
      "Ġ1921": 5649,
      "Ġbudget": 5650,
      "Ġemployed": 5651,
      "Ġholly": 5652,
      "Ġcovers": 5653,
      "##een": 5654,
      "Ġ18th": 5655,
      "Ġelse": 5656,
      "Ġweak": 5657,
      "Ġproperties": 5658,
      "Ġconte": 5659,
      "Ġpatri": 5660,
      "Ġstructures": 5661,
      "Ġfro": 5662,
      "##inger": 5663,
      "Ġford": 5664,
      "Ġethnic": 5665,
      "Ġends": 5666,
      "##Ãº": 5667,
      "Ġlane": 5668,
      "Ġpenal": 5669,
      "Ġviolence": 5670,
      "Ġcm": 5671,
      "Ġterror": 5672,
      "Ġestablishment": 5673,
      "##ads": 5674,
      "Ġ63": 5675,
      "Ġcel": 5676,
      "Ġseventh": 5677,
      "Ġheight": 5678,
      "Ġpoll": 5679,
      "Ġ74": 5680,
      "##enna": 5681,
      "Ġ1927": 5682,
      "Ġattorney": 5683,
      "Ġgreatest": 5684,
      "Ġdetermined": 5685,
      "##iang": 5686,
      "Ġopposed": 5687,
      "Ġedited": 5688,
      "Ġlegend": 5689,
      "##ouri": 5690,
      "Ġbachel": 5691,
      "Ġneeds": 5692,
      "Ġsed": 5693,
      "Ġuncle": 5694,
      "##where": 5695,
      "Ġhope": 5696,
      "Ġfunding": 5697,
      "Ġmine": 5698,
      "Ġ1931": 5699,
      "Ġ85": 5700,
      "Ġtwelve": 5701,
      "Ġcomic": 5702,
      "Ġtag": 5703,
      "Ġincident": 5704,
      "Ġsale": 5705,
      "Ġmobile": 5706,
      "Ġkat": 5707,
      "Ġ1912": 5708,
      "Ġhistorian": 5709,
      "##uses": 5710,
      "##omot": 5711,
      "##ses": 5712,
      "Ġrene": 5713,
      "Ġways": 5714,
      "Ġconsecut": 5715,
      "Ġconsisted": 5716,
      "Ġpatients": 5717,
      "Ġinterp": 5718,
      "Ġbowl": 5719,
      "Ġretirement": 5720,
      "Ġchapter": 5721,
      "Ġmoon": 5722,
      "##aki": 5723,
      "Ġslov": 5724,
      "##alu": 5725,
      "Ġanderson": 5726,
      "Ġfan": 5727,
      "##anta": 5728,
      "Ġ78": 5729,
      "Ġ77": 5730,
      "Ġsunday": 5731,
      "Ġworldwide": 5732,
      "Ġdry": 5733,
      "##anna": 5734,
      "Ġsax": 5735,
      "Ġweapons": 5736,
      "Ġwrite": 5737,
      "Ġwalls": 5738,
      "Ġstandards": 5739,
      "Ġwaters": 5740,
      "Ġexplor": 5741,
      "##ho": 5742,
      "##adu": 5743,
      "Ġhair": 5744,
      "Ġpieces": 5745,
      "##isted": 5746,
      "Ġkansas": 5747,
      "Ġchapel": 5748,
      "Ġderived": 5749,
      "##oln": 5750,
      "Ġmp": 5751,
      "##zh": 5752,
      "Ġmotion": 5753,
      "Ġchur": 5754,
      "Ġreign": 5755,
      "##caa": 5756,
      "Ġ1925": 5757,
      "Ġvel": 5758,
      "Ġspecifically": 5759,
      "Ġregarding": 5760,
      "Ġminnes": 5761,
      "Ġharry": 5762,
      "Ġescape": 5763,
      "##chers": 5764,
      "##eral": 5765,
      "Ġhyp": 5766,
      "Ġjoh": 5767,
      "Ġdriver": 5768,
      "##fall": 5769,
      "Ġconnection": 5770,
      "Ġselling": 5771,
      "##real": 5772,
      "Ġinfluenced": 5773,
      "Ġcollected": 5774,
      "Ġcommunications": 5775,
      "Ġvietnam": 5776,
      "##osis": 5777,
      "##mo": 5778,
      "Ġroy": 5779,
      "##inder": 5780,
      "##iations": 5781,
      "Ġcontrast": 5782,
      "Ġemph": 5783,
      "Ġgay": 5784,
      "Ġsty": 5785,
      "Ġcos": 5786,
      "##ava": 5787,
      "Ġcontrolled": 5788,
      "Ġbroadcasting": 5789,
      "Ġinaug": 5790,
      "Ġoffices": 5791,
      "##ogen": 5792,
      "Ġexclus": 5793,
      "Ġturkey": 5794,
      "##lec": 5795,
      "Ġment": 5796,
      "Ġbuff": 5797,
      "Ġminnesota": 5798,
      "Ġplot": 5799,
      "Ġappoint": 5800,
      "Ġbirds": 5801,
      "Ġcovid": 5802,
      "Ġmuslim": 5803,
      "Ġrivers": 5804,
      "Ġwalter": 5805,
      "Ġelectronic": 5806,
      "Ġonto": 5807,
      "Ġdynasty": 5808,
      "Ġalleged": 5809,
      "Ġbah": 5810,
      "Ġcenturies": 5811,
      "Ġchristmas": 5812,
      "Ġ1916": 5813,
      "Ġmist": 5814,
      "Ġbureau": 5815,
      "Ġdeveloping": 5816,
      "##apore": 5817,
      "##Å«": 5818,
      "Ġ1915": 5819,
      "Ġmiller": 5820,
      "Ġwealth": 5821,
      "Ġlad": 5822,
      "Ġjane": 5823,
      "##uv": 5824,
      "Ġrif": 5825,
      "Ġavoid": 5826,
      "Ġpassenger": 5827,
      "Ġ97": 5828,
      "Ġ1923": 5829,
      "Ġfab": 5830,
      "Ġinstitution": 5831,
      "Ġ69": 5832,
      "Ġdioc": 5833,
      "Ġassess": 5834,
      "##zen": 5835,
      "Ġ1926": 5836,
      "##ules": 5837,
      "##olk": 5838,
      "##col": 5839,
      "Ġcontributed": 5840,
      "Ġ1910": 5841,
      "Ġphilippines": 5842,
      "Ġreasons": 5843,
      "##ori": 5844,
      "##Ã£o": 5845,
      "Ġbapt": 5846,
      "Ġnfl": 5847,
      "Ġplate": 5848,
      "Ġtranslated": 5849,
      "Ġstreets": 5850,
      "##bec": 5851,
      "Ġdisplay": 5852,
      "##yt": 5853,
      "Ġwithdra": 5854,
      "Ġconsecutive": 5855,
      "Ġgord": 5856,
      "Ġmalays": 5857,
      "##ois": 5858,
      "Ġnegative": 5859,
      "Ġdecre": 5860,
      "##olished": 5861,
      "##aska": 5862,
      "Ġexpedition": 5863,
      "Ġinnov": 5864,
      "##Ã¢": 5865,
      "##lets": 5866,
      "Ġturkish": 5867,
      "Ġgate": 5868,
      "Ġshut": 5869,
      "Ġsid": 5870,
      "Ġslightly": 5871,
      "Ġltd": 5872,
      "Ġom": 5873,
      "Ġsingapore": 5874,
      "Ġcad": 5875,
      "Ġjews": 5876,
      "Ġqualified": 5877,
      "Ġsolid": 5878,
      "Ġ96": 5879,
      "Ġannivers": 5880,
      "##gue": 5881,
      "Ġbear": 5882,
      "Ġsie": 5883,
      "Ġhans": 5884,
      "Ġniger": 5885,
      "Ġnorwe": 5886,
      "##ght": 5887,
      "Ġsimon": 5888,
      "Ġliver": 5889,
      "Ġdol": 5890,
      "Ġbachelor": 5891,
      "Ġorders": 5892,
      "Ġscenes": 5893,
      "Ġtouchdown": 5894,
      "Ġherself": 5895,
      "##erb": 5896,
      "##room": 5897,
      "##vis": 5898,
      "Ġmans": 5899,
      "Ġ88": 5900,
      "Ġcanal": 5901,
      "Ġpassing": 5902,
      "Ġlinc": 5903,
      "##anth": 5904,
      "Ġportugues": 5905,
      "Ġincorporated": 5906,
      "Ġtemperature": 5907,
      "Ġmanchester": 5908,
      "##pool": 5909,
      "Ġpir": 5910,
      "Ġresistance": 5911,
      "Ġdoing": 5912,
      "Ġadam": 5913,
      "##atures": 5914,
      "Ġprogramming": 5915,
      "Ġhat": 5916,
      "Ġtony": 5917,
      "Ġ71": 5918,
      "Ġfailure": 5919,
      "Ġtreas": 5920,
      "Ġnothing": 5921,
      "Ġhomes": 5922,
      "Ġabandoned": 5923,
      "##pri": 5924,
      "Ġncaa": 5925,
      "Ġmerged": 5926,
      "Ġri": 5927,
      "Ġconfeder": 5928,
      "Ġcathedral": 5929,
      "##oured": 5930,
      "Ġpicture": 5931,
      "Ġfinds": 5932,
      "Ġfunctions": 5933,
      "Ġformal": 5934,
      "Ġexamples": 5935,
      "Ġere": 5936,
      "Ġadvant": 5937,
      "Ġsomeone": 5938,
      "Ġselect": 5939,
      "Ġwalk": 5940,
      "##40": 5941,
      "Ġgla": 5942,
      "Ġexer": 5943,
      "Ġanniversary": 5944,
      "Ġnich": 5945,
      "Ġdescript": 5946,
      "Ġinhabit": 5947,
      "Ġtrump": 5948,
      "Ġwisc": 5949,
      "##rig": 5950,
      "Ġsri": 5951,
      "Ġ73": 5952,
      "##owa": 5953,
      "Ġsynt": 5954,
      "Ġmetres": 5955,
      "##iments": 5956,
      "Ġplayoff": 5957,
      "Ġ98": 5958,
      "Ġcommunication": 5959,
      "Ġroads": 5960,
      "Ġdeploy": 5961,
      "Ġgain": 5962,
      "##onsin": 5963,
      "##ito": 5964,
      "##cont": 5965,
      "Ġsole": 5966,
      "Ġrival": 5967,
      "Ġcalls": 5968,
      "Ġsuccessfully": 5969,
      "Ġceremony": 5970,
      "Ġdeleg": 5971,
      "Ġbehavior": 5972,
      "Ġrus": 5973,
      "Ġfunds": 5974,
      "##ÃŃa": 5975,
      "Ġentrance": 5976,
      "Ġdean": 5977,
      "Ġsought": 5978,
      "Ġshape": 5979,
      "Ġbelieve": 5980,
      "Ġmaintained": 5981,
      "Ġwisconsin": 5982,
      "##mouth": 5983,
      "Ġlicens": 5984,
      "Ġmam": 5985,
      "Ġbanks": 5986,
      "Ġrecognition": 5987,
      "Ġcontained": 5988,
      "Ġrefers": 5989,
      "Ġtranslation": 5990,
      "Ġcarry": 5991,
      "Ġspeaking": 5992,
      "Ġcool": 5993,
      "Ġemphas": 5994,
      "Ġtalk": 5995,
      "Ġgri": 5996,
      "Ġ2022": 5997,
      "##lyn": 5998,
      "##yth": 5999,
      "Ġexpressed": 6000,
      "Ġcandidates": 6001,
      "Ġmissouri": 6002,
      "Ġinvited": 6003,
      "Ġchurches": 6004,
      "Ġhav": 6005,
      "Ġ5th": 6006,
      "Ġreflect": 6007,
      "Ġpublications": 6008,
      "Ġselection": 6009,
      "Ġnorwegian": 6010,
      "Ġsang": 6011,
      "Ġfinishing": 6012,
      "Ġbright": 6013,
      "##ante": 6014,
      "Ġbid": 6015,
      "Ġnorway": 6016,
      "Ġportuguese": 6017,
      "Ġlap": 6018,
      "Ġqueensland": 6019,
      "Ġbroken": 6020,
      "Ġathletic": 6021,
      "Ġlocations": 6022,
      "Ġsi": 6023,
      "Ġlincoln": 6024,
      "Ġhug": 6025,
      "##aria": 6026,
      "Ġregistered": 6027,
      "Ġ175": 6028,
      "Ġdynam": 6029,
      "Ġsenator": 6030,
      "Ġsignal": 6031,
      "Ġclean": 6032,
      "##inals": 6033,
      "Ġindiana": 6034,
      "##erse": 6035,
      "Ġpod": 6036,
      "Ġlooking": 6037,
      "Ġequival": 6038,
      "##ading": 6039,
      "Ġknight": 6040,
      "##fully": 6041,
      "Ġstrength": 6042,
      "Ġtoward": 6043,
      "##omer": 6044,
      "Ġbrain": 6045,
      "Ġariz": 6046,
      "##ivals": 6047,
      "Ġcrisis": 6048,
      "Ġcolorado": 6049,
      "Ġflu": 6050,
      "Ġdecades": 6051,
      "Ġexistence": 6052,
      "Ġdescend": 6053,
      "Ġagriculture": 6054,
      "Ġsave": 6055,
      "Ġcoordin": 6056,
      "Ġresidence": 6057,
      "Ġoccurs": 6058,
      "Ġble": 6059,
      "Ġshaped": 6060,
      "Ġcamer": 6061,
      "Ġaustria": 6062,
      "Ġlaid": 6063,
      "Ġfranch": 6064,
      "##zer": 6065,
      "##yr": 6066,
      "##born": 6067,
      "##aga": 6068,
      "Ġproducing": 6069,
      "Ġtennes": 6070,
      "Ġeducated": 6071,
      "Ġplanet": 6072,
      "##play": 6073,
      "Ġscholar": 6074,
      "Ġdoll": 6075,
      "Ġlith": 6076,
      "Ġresigned": 6077,
      "Ġlocomot": 6078,
      "Ġwrestling": 6079,
      "##osa": 6080,
      "##olis": 6081,
      "Ġpictures": 6082,
      "Ġvoted": 6083,
      "Ġ87": 6084,
      "Ġahead": 6085,
      "Ġhoward": 6086,
      "Ġtrying": 6087,
      "Ġ86": 6088,
      "Ġcausing": 6089,
      "Ġreaching": 6090,
      "Ġ1913": 6091,
      "Ġ82": 6092,
      "Ġwings": 6093,
      "Ġsoul": 6094,
      "Ġpossibly": 6095,
      "##lying": 6096,
      "Ġdougl": 6097,
      "Ġrud": 6098,
      "Ġextension": 6099,
      "Ġzh": 6100,
      "Ġinjured": 6101,
      "##set": 6102,
      "Ġhits": 6103,
      "Ġgm": 6104,
      "Ġarmen": 6105,
      "Ġtennessee": 6106,
      "Ġhamilton": 6107,
      "Ġheard": 6108,
      "##western": 6109,
      "Ġwitness": 6110,
      "Ġideas": 6111,
      "Ġtask": 6112,
      "Ġopin": 6113,
      "##di": 6114,
      "Ġconstituency": 6115,
      "Ġprofession": 6116,
      "Ġnarr": 6117,
      "Ġstating": 6118,
      "Ġconvent": 6119,
      "##11": 6120,
      "##kyo": 6121,
      "##essions": 6122,
      "##stream": 6123,
      "Ġislamic": 6124,
      "##ami": 6125,
      "Ġcopy": 6126,
      "Ġpaintings": 6127,
      "Ġtrained": 6128,
      "Ġemployees": 6129,
      "Ġarizona": 6130,
      "Ġalph": 6131,
      "Ġdistinguished": 6132,
      "Ġ1911": 6133,
      "Ġbeng": 6134,
      "Ġextrem": 6135,
      "Ġreally": 6136,
      "##ÑĤ": 6137,
      "Ġsatur": 6138,
      "Ġhired": 6139,
      "Ġbot": 6140,
      "Ġrecip": 6141,
      "Ġhors": 6142,
      "Ġinvasion": 6143,
      "Ġswiss": 6144,
      "Ġconsisting": 6145,
      "Ġrefuge": 6146,
      "Ġplus": 6147,
      "##inces": 6148,
      "##iful": 6149,
      "##cs": 6150,
      "Ġconqu": 6151,
      "Ġteen": 6152,
      "##oles": 6153,
      "Ġbands": 6154,
      "Ġseed": 6155,
      "##osh": 6156,
      "Ġcabinet": 6157,
      "Ġspeak": 6158,
      "Ġwatch": 6159,
      "Ġdj": 6160,
      "##anes": 6161,
      "Ġsurg": 6162,
      "Ġparalle": 6163,
      "Ġgib": 6164,
      "##uther": 6165,
      "Ġapplications": 6166,
      "##iva": 6167,
      "Ġoutstanding": 6168,
      "Ġwave": 6169,
      "Ġmaryland": 6170,
      "Ġcarbon": 6171,
      "Ġmyth": 6172,
      "Ġamate": 6173,
      "Ġmonument": 6174,
      "Ġinstalled": 6175,
      "Ġstatement": 6176,
      "Ġfighter": 6177,
      "Ġprefer": 6178,
      "Ġinvestment": 6179,
      "Ġheavily": 6180,
      "##ublin": 6181,
      "Ġlimit": 6182,
      "Ġexpos": 6183,
      "Ġprotein": 6184,
      "##tv": 6185,
      "##alo": 6186,
      "Ġconservation": 6187,
      "##regon": 6188,
      "Ġlis": 6189,
      "Ġbrian": 6190,
      "Ġnik": 6191,
      "Ġusers": 6192,
      "##wich": 6193,
      "Ġcanc": 6194,
      "Ġbottom": 6195,
      "Ġcourts": 6196,
      "Ġshall": 6197,
      "Ġorange": 6198,
      "Ġpromote": 6199,
      "##uff": 6200,
      "Ġcycl": 6201,
      "Ġprincess": 6202,
      "Ġrav": 6203,
      "Ġsell": 6204,
      "Ġbush": 6205,
      "Ġoregon": 6206,
      "##iants": 6207,
      "Ġgrass": 6208,
      "##oto": 6209,
      "Ġparliamentary": 6210,
      "Ġchain": 6211,
      "Ġspin": 6212,
      "Ġviews": 6213,
      "Ġborough": 6214,
      "Ġtokyo": 6215,
      "Ġmedium": 6216,
      "Ġskin": 6217,
      "Ġpear": 6218,
      "Ġille": 6219,
      "Ġjoining": 6220,
      "Ġ1908": 6221,
      "Ġlyn": 6222,
      "Ġisraeli": 6223,
      "##liest": 6224,
      "Ġemot": 6225,
      "Ġuniversal": 6226,
      "Ġ79": 6227,
      "Ġtransportation": 6228,
      "##bell": 6229,
      "Ġduty": 6230,
      "##unk": 6231,
      "##cha": 6232,
      "Ġexperien": 6233,
      "Ġimportance": 6234,
      "Ġstarts": 6235,
      "Ġengaged": 6236,
      "##lines": 6237,
      "Ġpasses": 6238,
      "Ġenfor": 6239,
      "Ġhang": 6240,
      "Ġexcell": 6241,
      "Ġcalling": 6242,
      "Ġarena": 6243,
      "Ġwinners": 6244,
      "##ghan": 6245,
      "Ġargued": 6246,
      "Ġpersonnel": 6247,
      "Ġobserved": 6248,
      "Ġ92": 6249,
      "##oster": 6250,
      "Ġtennis": 6251,
      "Ġsymbol": 6252,
      "Ġimages": 6253,
      "Ġopportunity": 6254,
      "##prise": 6255,
      "Ġlaure": 6256,
      "##iar": 6257,
      "##12": 6258,
      "Ġcaval": 6259,
      "Ġ89": 6260,
      "##oud": 6261,
      "Ġquite": 6262,
      "Ġreality": 6263,
      "Ġgetting": 6264,
      "Ġpool": 6265,
      "##sp": 6266,
      "Ġsalt": 6267,
      "Ġbodies": 6268,
      "Ġmoment": 6269,
      "Ġark": 6270,
      "Ġraf": 6271,
      "Ġ84": 6272,
      "Ġbelg": 6273,
      "Ġimprove": 6274,
      "Ġdoct": 6275,
      "Ġgender": 6276,
      "Ġaw": 6277,
      "Ġproved": 6278,
      "Ġtransition": 6279,
      "Ġharvard": 6280,
      "Ġemergency": 6281,
      "Ġdies": 6282,
      "##pping": 6283,
      "##vo": 6284,
      "Ġmall": 6285,
      "Ġpraised": 6286,
      "Ġern": 6287,
      "Ġsinging": 6288,
      "Ġambass": 6289,
      "Ġum": 6290,
      "Ġdvd": 6291,
      "##asy": 6292,
      "Ġruled": 6293,
      "##pur": 6294,
      "##heas": 6295,
      "Ġpremiered": 6296,
      "Ġmolec": 6297,
      "Ġobjects": 6298,
      "##eria": 6299,
      "##iab": 6300,
      "Ġevening": 6301,
      "Ġcauses": 6302,
      "Ġvalues": 6303,
      "Ġdrawn": 6304,
      "Ġmurd": 6305,
      "Ġrecon": 6306,
      "Ġorganisation": 6307,
      "Ġallen": 6308,
      "##vi": 6309,
      "Ġbath": 6310,
      "Ġteachers": 6311,
      "Ġoccas": 6312,
      "Ġaffected": 6313,
      "Ġshore": 6314,
      "##ctic": 6315,
      "##uls": 6316,
      "Ġadap": 6317,
      "Ġsession": 6318,
      "Ġthor": 6319,
      "Ġconcluded": 6320,
      "Ġimproved": 6321,
      "Ġgor": 6322,
      "Ġva": 6323,
      "Ġdirectors": 6324,
      "##fort": 6325,
      "Ġcompete": 6326,
      "Ġknock": 6327,
      "Ġsatell": 6328,
      "Ġdates": 6329,
      "##char": 6330,
      "Ġheaded": 6331,
      "Ġswitzer": 6332,
      "Ġentirely": 6333,
      "Ġstran": 6334,
      "Ġarrang": 6335,
      "##rants": 6336,
      "Ġones": 6337,
      "##umber": 6338,
      "Ġlawyer": 6339,
      "Ġenrol": 6340,
      "##olas": 6341,
      "Ġpalest": 6342,
      "Ġrebu": 6343,
      "##isms": 6344,
      "##ocated": 6345,
      "Ġadditionally": 6346,
      "##while": 6347,
      "##dam": 6348,
      "Ġjunction": 6349,
      "Ġseconds": 6350,
      "##appe": 6351,
      "##oli": 6352,
      "##chi": 6353,
      "##iny": 6354,
      "Ġjay": 6355,
      "Ġesp": 6356,
      "Ġpor": 6357,
      "Ġcolumn": 6358,
      "Ġnom": 6359,
      "Ġsamuel": 6360,
      "Ġmedie": 6361,
      "Ġeyes": 6362,
      "Ġbrid": 6363,
      "Ġterra": 6364,
      "##yers": 6365,
      "Ġfisher": 6366,
      "Ġastron": 6367,
      "Ġregarded": 6368,
      "Ġhip": 6369,
      "Ġaware": 6370,
      "Ġimag": 6371,
      "##berts": 6372,
      "Ġclosely": 6373,
      "Ġassociate": 6374,
      "Ġsusp": 6375,
      "Ġmining": 6376,
      "##acent": 6377,
      "Ġ93": 6378,
      "##yd": 6379,
      "Ġindigen": 6380,
      "Ġbriefly": 6381,
      "##ogy": 6382,
      "Ġdouglas": 6383,
      "Ġfrederick": 6384,
      "##Ð¾Ð": 6385,
      "Ġcroat": 6386,
      "Ġswitzerland": 6387,
      "Ġwick": 6388,
      "Ġsubstit": 6389,
      "Ġpatrick": 6390,
      "Ġ17th": 6391,
      "Ġacid": 6392,
      "Ġmedieval": 6393,
      "Ġcollaboration": 6394,
      "Ġexact": 6395,
      "Ġgoods": 6396,
      "Ġjord": 6397,
      "Ġbrun": 6398,
      "Ġmagic": 6399,
      "Ġskills": 6400,
      "Ġengines": 6401,
      "Ġjesus": 6402,
      "Ġdat": 6403,
      "Ġdescribes": 6404,
      "Ġpainter": 6405,
      "##oration": 6406,
      "Ġinhabitants": 6407,
      "Ġaccused": 6408,
      "Ġperfect": 6409,
      "Ġclark": 6410,
      "Ġnotably": 6411,
      "##gas": 6412,
      "Ġupd": 6413,
      "Ġintel": 6414,
      "Ġpersons": 6415,
      "##rum": 6416,
      "Ġproced": 6417,
      "Ġrating": 6418,
      "Ġ81": 6419,
      "Ġsubstant": 6420,
      "##eld": 6421,
      "##iled": 6422,
      "##icide": 6423,
      "Ġjourney": 6424,
      "##Ã©s": 6425,
      "Ġgordon": 6426,
      "Ġfavour": 6427,
      "Ġip": 6428,
      "Ġcomics": 6429,
      "Ġcomposition": 6430,
      "Ġanthony": 6431,
      "Ġreduce": 6432,
      "Ġhumans": 6433,
      "##roit": 6434,
      "Ġpassengers": 6435,
      "Ġsubsid": 6436,
      "Ġdocuments": 6437,
      "Ġamateur": 6438,
      "Ġreplace": 6439,
      "Ġproductions": 6440,
      "Ġcycle": 6441,
      "Ġ1930s": 6442,
      "Ġdowntown": 6443,
      "##ikh": 6444,
      "##Ä«": 6445,
      "Ġcombination": 6446,
      "Ġmusician": 6447,
      "##rep": 6448,
      "Ġdistributed": 6449,
      "Ġalg": 6450,
      "Ġindigenous": 6451,
      "Ġfactor": 6452,
      "Ġpenins": 6453,
      "Ġadmiral": 6454,
      "Ġtick": 6455,
      "Ġbrick": 6456,
      "Ġstarred": 6457,
      "Ġphotograph": 6458,
      "Ġgrounds": 6459,
      "Ġwy": 6460,
      "Ġbry": 6461,
      "Ġoperate": 6462,
      "##apes": 6463,
      "Ġ600": 6464,
      "Ġ83": 6465,
      "##mal": 6466,
      "Ġperh": 6467,
      "##outs": 6468,
      "Ġparam": 6469,
      "Ġunsu": 6470,
      "Ġadjacent": 6471,
      "Ġfern": 6472,
      "Ġbelief": 6473,
      "Ġfinance": 6474,
      "##rete": 6475,
      "##rations": 6476,
      "Ġhouston": 6477,
      "##Ä±": 6478,
      "##wick": 6479,
      "Ġdecade": 6480,
      "Ġ94": 6481,
      "Ġbaby": 6482,
      "Ġancest": 6483,
      "Ġperhaps": 6484,
      "Ġleads": 6485,
      "Ġ1905": 6486,
      "##heastern": 6487,
      "Ġtypical": 6488,
      "Ġdc": 6489,
      "Ġsoph": 6490,
      "Ġstores": 6491,
      "Ġdiego": 6492,
      "##agan": 6493,
      "Ġenl": 6494,
      "Ġuser": 6495,
      "##actions": 6496,
      "Ġuniversities": 6497,
      "Ġkentucky": 6498,
      "Ġbuddh": 6499,
      "Ġgets": 6500,
      "Ġsections": 6501,
      "Ġpas": 6502,
      "Ġchance": 6503,
      "Ġevolution": 6504,
      "Ġmerc": 6505,
      "##elle": 6506,
      "Ġgreece": 6507,
      "Ġvision": 6508,
      "Ġtechniques": 6509,
      "Ġdepth": 6510,
      "##agues": 6511,
      "Ġbib": 6512,
      "Ġunif": 6513,
      "Ġpurchase": 6514,
      "Ġcheck": 6515,
      "Ġsafe": 6516,
      "Ġearliest": 6517,
      "##come": 6518,
      "##iner": 6519,
      "Ġisol": 6520,
      "Ġbart": 6521,
      "Ġrepeated": 6522,
      "Ġactual": 6523,
      "Ġhollywood": 6524,
      "Ġblues": 6525,
      "##ologies": 6526,
      "##rif": 6527,
      "##lusion": 6528,
      "Ġrecre": 6529,
      "Ġcass": 6530,
      "Ġsynd": 6531,
      "Ġjuan": 6532,
      "Ġroll": 6533,
      "##Äĥ": 6534,
      "Ġchose": 6535,
      "Ġrefle": 6536,
      "Ġshooting": 6537,
      "Ġelder": 6538,
      "##rees": 6539,
      "Ġformula": 6540,
      "Ġdetroit": 6541,
      "##cop": 6542,
      "Ġpapers": 6543,
      "Ġnag": 6544,
      "Ġ1906": 6545,
      "Ġsubmar": 6546,
      "Ġauthors": 6547,
      "Ġ160": 6548,
      "Ġcoastal": 6549,
      "Ġmississ": 6550,
      "Ġdevice": 6551,
      "Ġcu": 6552,
      "Ġvert": 6553,
      "Ġitems": 6554,
      "Ġalan": 6555,
      "##odox": 6556,
      "Ġfried": 6557,
      "Ġalab": 6558,
      "Ġtell": 6559,
      "Ġlanc": 6560,
      "##pective": 6561,
      "Ġlanding": 6562,
      "Ġcredit": 6563,
      "Ġnone": 6564,
      "##usal": 6565,
      "##bu": 6566,
      "Ġcrossing": 6567,
      "Ġseems": 6568,
      "Ġkaz": 6569,
      "##adow": 6570,
      "Ġdepos": 6571,
      "Ġcontributions": 6572,
      "Ġgolf": 6573,
      "Ġtang": 6574,
      "Ġrelief": 6575,
      "Ġedin": 6576,
      "Ġdanish": 6577,
      "Ġukraine": 6578,
      "##ternal": 6579,
      "##sch": 6580,
      "Ġappeal": 6581,
      "Ġ1907": 6582,
      "Ġchor": 6583,
      "Ġss": 6584,
      "##iders": 6585,
      "Ġpages": 6586,
      "Ġoffensive": 6587,
      "Ġresidential": 6588,
      "Ġpainted": 6589,
      "Ġphill": 6590,
      "Ġcounties": 6591,
      "Ġsor": 6592,
      "Ġdelay": 6593,
      "Ġdetails": 6594,
      "Ġcapture": 6595,
      "##aro": 6596,
      "Ġeconomics": 6597,
      "Ġunderstanding": 6598,
      "##bb": 6599,
      "##hammad": 6600,
      "Ġdriving": 6601,
      "Ġdod": 6602,
      "Ġ91": 6603,
      "##box": 6604,
      "Ġprofit": 6605,
      "Ġmusicians": 6606,
      "Ġmeasures": 6607,
      "Ġell": 6608,
      "Ġinterests": 6609,
      "##mi": 6610,
      "Ġcommonwe": 6611,
      "Ġ1909": 6612,
      "Ġhungarian": 6613,
      "##onom": 6614,
      "Ġvs": 6615,
      "Ġopposite": 6616,
      "Ġ16th": 6617,
      "##umin": 6618,
      "##entially": 6619,
      "Ġdublin": 6620,
      "Ġliv": 6621,
      "Ġprix": 6622,
      "##din": 6623,
      "Ġsymph": 6624,
      "Ġattached": 6625,
      "Ġmoore": 6626,
      "Ġdiscovery": 6627,
      "Ġcommonwealth": 6628,
      "##ew": 6629,
      "##tim": 6630,
      "Ġsaturday": 6631,
      "Ġsurvived": 6632,
      "Ġabb": 6633,
      "##ardo": 6634,
      "Ġdidn": 6635,
      "Ġinner": 6636,
      "Ġparticipate": 6637,
      "Ġranking": 6638,
      "##heless": 6639,
      "Ġdismiss": 6640,
      "Ġrevol": 6641,
      "Ġeasily": 6642,
      "Ġdrew": 6643,
      "##athe": 6644,
      "Ġkl": 6645,
      "Ġcourses": 6646,
      "Ġcharges": 6647,
      "##ensions": 6648,
      "Ġdamaged": 6649,
      "Ġequivalent": 6650,
      "Ġpatrol": 6651,
      "Ġcommitted": 6652,
      "Ġinterpret": 6653,
      "Ġwinds": 6654,
      "Ġcosts": 6655,
      "##ef": 6656,
      "Ġmetro": 6657,
      "Ġsubd": 6658,
      "##à¤": 6659,
      "Ġfired": 6660,
      "##ucing": 6661,
      "Ġassistance": 6662,
      "Ġmarie": 6663,
      "Ġphysics": 6664,
      "Ġfinn": 6665,
      "Ġmoth": 6666,
      "Ġalleg": 6667,
      "Ġcous": 6668,
      "Ġedinburgh": 6669,
      "Ġgon": 6670,
      "##issance": 6671,
      "Ġflowers": 6672,
      "Ġbreed": 6673,
      "Ġchile": 6674,
      "Ġdebuted": 6675,
      "Ġscar": 6676,
      "##bar": 6677,
      "Ġsequence": 6678,
      "Ġphen": 6679,
      "Ġ6th": 6680,
      "Ġowners": 6681,
      "Ġnel": 6682,
      "Ġhawai": 6683,
      "##racy": 6684,
      "Ġaviation": 6685,
      "##pes": 6686,
      "Ġbeautiful": 6687,
      "##erto": 6688,
      "Ġdefensive": 6689,
      "##aux": 6690,
      "Ġdesigns": 6691,
      "Ġadvantage": 6692,
      "Ġclay": 6693,
      "##burn": 6694,
      "Ġcolour": 6695,
      "Ġcul": 6696,
      "Ġdelivered": 6697,
      "Ġregularly": 6698,
      "Ġmyst": 6699,
      "##sex": 6700,
      "Ġtrophy": 6701,
      "##organ": 6702,
      "##friend": 6703,
      "Ġpurposes": 6704,
      "Ġelectoral": 6705,
      "Ġkan": 6706,
      "##yst": 6707,
      "Ġharris": 6708,
      "Ġuns": 6709,
      "Ġmissing": 6710,
      "Ġlod": 6711,
      "Ġafghan": 6712,
      "Ġcompla": 6713,
      "##uma": 6714,
      "Ġstands": 6715,
      "Ġliqu": 6716,
      "Ġmargaret": 6717,
      "Ġshowing": 6718,
      "Ġtaiwan": 6719,
      "Ġsocialist": 6720,
      "Ġdick": 6721,
      "Ġfranchise": 6722,
      "Ġrestrict": 6723,
      "Ġmanus": 6724,
      "Ġaudio": 6725,
      "Ġmental": 6726,
      "Ġdrink": 6727,
      "##uing": 6728,
      "##naissance": 6729,
      "Ġoklah": 6730,
      "Ġinstru": 6731,
      "##ippi": 6732,
      "Ġtruth": 6733,
      "Ġcharged": 6734,
      "Ġrenov": 6735,
      "Ġgym": 6736,
      "Ġcommissioner": 6737,
      "##mat": 6738,
      "Ġ1904": 6739,
      "Ġmaintain": 6740,
      "Ġracial": 6741,
      "##oslav": 6742,
      "Ġretail": 6743,
      "##mun": 6744,
      "Ġrooms": 6745,
      "Ġalabama": 6746,
      "##onder": 6747,
      "Ġbusinesses": 6748,
      "Ġgross": 6749,
      "##going": 6750,
      "##agu": 6751,
      "Ġpitts": 6752,
      "ĠÅ": 6753,
      "Ġroberts": 6754,
      "Ġantonio": 6755,
      "Ġresign": 6756,
      "Ġshir": 6757,
      "Ġmembership": 6758,
      "Ġexpression": 6759,
      "Ġcolony": 6760,
      "Ġmrs": 6761,
      "Ġdivisions": 6762,
      "Ġreturns": 6763,
      "Ġunderground": 6764,
      "Ġmeanwhile": 6765,
      "Ġcredited": 6766,
      "Ġeighth": 6767,
      "Ġcircle": 6768,
      "Ġactors": 6769,
      "##cla": 6770,
      "Ġjuris": 6771,
      "Ġtries": 6772,
      "Ġ800": 6773,
      "Ġmonaster": 6774,
      "##car": 6775,
      "Ġ250": 6776,
      "Ġwounded": 6777,
      "Ġthin": 6778,
      "Ġoklahoma": 6779,
      "Ġcreative": 6780,
      "Ġceo": 6781,
      "Ġsalv": 6782,
      "Ġrecall": 6783,
      "##bey": 6784,
      "##father": 6785,
      "Ġquebec": 6786,
      "Ġmargin": 6787,
      "Ġscheme": 6788,
      "Ġrestaurant": 6789,
      "##rome": 6790,
      "Ġpus": 6791,
      "##pet": 6792,
      "Ġmouth": 6793,
      "Ġry": 6794,
      "Ġcarrying": 6795,
      "Ġchanc": 6796,
      "Ġyan": 6797,
      "##do": 6798,
      "##aph": 6799,
      "Ġcircum": 6800,
      "##ista": 6801,
      "##fc": 6802,
      "##iami": 6803,
      "Ġsoundtra": 6804,
      "Ġrejected": 6805,
      "Ġpip": 6806,
      "Ġappropri": 6807,
      "Ġcot": 6808,
      "Ġshah": 6809,
      "Ġreaction": 6810,
      "Ġargentina": 6811,
      "Ġanna": 6812,
      "Ġtheore": 6813,
      "Ġiowa": 6814,
      "##dale": 6815,
      "Ġbuck": 6816,
      "##gro": 6817,
      "Ġ7th": 6818,
      "Ġcontext": 6819,
      "Ġstrate": 6820,
      "Ġcinema": 6821,
      "Ġjordan": 6822,
      "Ġ166": 6823,
      "Ġdiocese": 6824,
      "Ġmathematics": 6825,
      "##now": 6826,
      "Ġprotected": 6827,
      "Ġstring": 6828,
      "Ġresolution": 6829,
      "Ġnickn": 6830,
      "Ġdonald": 6831,
      "Ġfactors": 6832,
      "Ġsevere": 6833,
      "Ġdefeating": 6834,
      "Ġambassador": 6835,
      "##19": 6836,
      "##ructure": 6837,
      "Ġreconst": 6838,
      "Ġdisney": 6839,
      "Ġaccommod": 6840,
      "Ġunus": 6841,
      "##mers": 6842,
      "Ġadmitted": 6843,
      "Ġcaught": 6844,
      "Ġmiami": 6845,
      "Ġ1901": 6846,
      "Ġpuerto": 6847,
      "Ġexplos": 6848,
      "Ġalexand": 6849,
      "Ġcontra": 6850,
      "Ġstrategy": 6851,
      "##icut": 6852,
      "Ġms": 6853,
      "Ġ1903": 6854,
      "Ġ1902": 6855,
      "Ġorthodox": 6856,
      "Ġdetermine": 6857,
      "##active": 6858,
      "Ġlawrence": 6859,
      "Ġrecordings": 6860,
      "Ġ170": 6861,
      "Ġwindow": 6862,
      "Ġthirty": 6863,
      "Ġtow": 6864,
      "Ġneut": 6865,
      "Ġcoalition": 6866,
      "Ġmail": 6867,
      "Ġhud": 6868,
      "Ġ120": 6869,
      "Ġwarri": 6870,
      "##enh": 6871,
      "Ġridge": 6872,
      "Ġassault": 6873,
      "Ġprohib": 6874,
      "Ġotherwise": 6875,
      "Ġstro": 6876,
      "Ġwet": 6877,
      "Ġric": 6878,
      "Ġlinked": 6879,
      "Ġwalker": 6880,
      "Ġrib": 6881,
      "Ġstages": 6882,
      "##antly": 6883,
      "Ġterminal": 6884,
      "Ġaccompanied": 6885,
      "Ġweeke": 6886,
      "Ġtesting": 6887,
      "Ġthick": 6888,
      "Ġalfred": 6889,
      "Ġguy": 6890,
      "Ġeverything": 6891,
      "Ġthousands": 6892,
      "Ġresponsibility": 6893,
      "##istol": 6894,
      "Ġbiggest": 6895,
      "Ġfrag": 6896,
      "##eline": 6897,
      "Ġgill": 6898,
      "##verty": 6899,
      "Ġcriticized": 6900,
      "##ilit": 6901,
      "Ġbelgium": 6902,
      "Ġtig": 6903,
      "##icians": 6904,
      "Ġtemporary": 6905,
      "Ġroutes": 6906,
      "Ġkra": 6907,
      "##onian": 6908,
      "Ġfinding": 6909,
      "Ġtact": 6910,
      "Ġheads": 6911,
      "Ġbrazilian": 6912,
      "Ġ174": 6913,
      "Ġjohann": 6914,
      "Ġing": 6915,
      "Ġmississippi": 6916,
      "Ġnurs": 6917,
      "##issions": 6918,
      "Ġwol": 6919,
      "Ġindex": 6920,
      "Ġinsurance": 6921,
      "Ġsurn": 6922,
      "Ġdiamond": 6923,
      "##agen": 6924,
      "Ġattract": 6925,
      "Ġrestored": 6926,
      "Ġmanufacturing": 6927,
      "Ġdenmark": 6928,
      "Ġalco": 6929,
      "Ġparallel": 6930,
      "Ġveget": 6931,
      "Ġeric": 6932,
      "Ġpeninsula": 6933,
      "Ġwels": 6934,
      "##die": 6935,
      "##kov": 6936,
      "##life": 6937,
      "Ġabc": 6938,
      "Ġevalu": 6939,
      "Ġgray": 6940,
      "Ġrepresents": 6941,
      "##hs": 6942,
      "Ġgulf": 6943,
      "Ġottoman": 6944,
      "Ġkilomet": 6945,
      "Ġpoverty": 6946,
      "Ġbringing": 6947,
      "Ġ168": 6948,
      "Ġhonorary": 6949,
      "Ġpolicies": 6950,
      "Ġpossess": 6951,
      "Ġdating": 6952,
      "Ġmaur": 6953,
      "Ġcler": 6954,
      "Ġsisters": 6955,
      "Ġarranged": 6956,
      "Ġspiritual": 6957,
      "Ġartistic": 6958,
      "Ġstorage": 6959,
      "Ġvictims": 6960,
      "Ġrout": 6961,
      "Ġdaughters": 6962,
      "Ġallied": 6963,
      "Ġcryst": 6964,
      "Ġmanuscript": 6965,
      "Ġdegrees": 6966,
      "Ġgather": 6967,
      "Ġguid": 6968,
      "Ġsleep": 6969,
      "Ġpel": 6970,
      "Ġformally": 6971,
      "Ġretained": 6972,
      "Ġlearned": 6973,
      "Ġfict": 6974,
      "##esh": 6975,
      "Ġhamp": 6976,
      "Ġrig": 6977,
      "Ġturns": 6978,
      "Ġsolar": 6979,
      "Ġseparated": 6980,
      "Ġhaz": 6981,
      "Ġassass": 6982,
      "Ġassumed": 6983,
      "Ġrum": 6984,
      "Ġjump": 6985,
      "##ressive": 6986,
      "##aine": 6987,
      "Ġprepared": 6988,
      "Ġgent": 6989,
      "Ġinvolving": 6990,
      "Ġgaz": 6991,
      "##ographical": 6992,
      "Ġexperienced": 6993,
      "Ġcompr": 6994,
      "Ġcher": 6995,
      "Ġrefere": 6996,
      "##borough": 6997,
      "Ġbun": 6998,
      "Ġcollections": 6999,
      "Ġlouisiana": 7000,
      "Ġinher": 7001,
      "Ġryan": 7002,
      "##rage": 7003,
      "Ġdiagn": 7004,
      "Ġstood": 7005,
      "Ġafterwards": 7006,
      "Ġcloth": 7007,
      "Ġmontreal": 7008,
      "Ġdifference": 7009,
      "Ġaim": 7010,
      "Ġlegislation": 7011,
      "Ġaccur": 7012,
      "##abad": 7013,
      "Ġpoems": 7014,
      "Ġscholarship": 7015,
      "Ġlux": 7016,
      "Ġ12th": 7017,
      "##ilst": 7018,
      "Ġresemb": 7019,
      "Ġvary": 7020,
      "Ġvienna": 7021,
      "Ġpoem": 7022,
      "##tz": 7023,
      "Ġoperates": 7024,
      "Ġprovision": 7025,
      "Ġcongreg": 7026,
      "Ġneighbour": 7027,
      "##eless": 7028,
      "Ġsignificantly": 7029,
      "##kshire": 7030,
      "Ġqualifying": 7031,
      "Ġleaf": 7032,
      "Ġmode": 7033,
      "Ġlank": 7034,
      "Ġpeters": 7035,
      "Ġcavalry": 7036,
      "Ġfemin": 7037,
      "##arest": 7038,
      "Ġhurric": 7039,
      "Ġrevolutionary": 7040,
      "Ġatlanta": 7041,
      "Ġsult": 7042,
      "Ġneuro": 7043,
      "Ġquestions": 7044,
      "Ġcrowd": 7045,
      "##pse": 7046,
      "Ġelementary": 7047,
      "Ġukrainian": 7048,
      "Ġextremely": 7049,
      "Ġexpert": 7050,
      "Ġreleg": 7051,
      "Ġdivor": 7052,
      "Ġroughly": 7053,
      "Ġay": 7054,
      "##orph": 7055,
      "##loyd": 7056,
      "##nie": 7057,
      "Ġplane": 7058,
      "Ġduties": 7059,
      "##contin": 7060,
      "Ġages": 7061,
      "##gi": 7062,
      "Ġfixed": 7063,
      "Ġstopped": 7064,
      "Ġ164": 7065,
      "##uz": 7066,
      "Ġpractices": 7067,
      "##cious": 7068,
      "Ġamaz": 7069,
      "Ġdress": 7070,
      "Ġstret": 7071,
      "Ġunsuccess": 7072,
      "Ġjacob": 7073,
      "Ġyor": 7074,
      "Ġarrival": 7075,
      "Ġroger": 7076,
      "Ġaustrian": 7077,
      "Ġbom": 7078,
      "Ġsuspend": 7079,
      "Ġcorrect": 7080,
      "Ġhid": 7081,
      "##lan": 7082,
      "Ġpreced": 7083,
      "Ġsubjects": 7084,
      "##rat": 7085,
      "Ġcamera": 7086,
      "Ġrick": 7087,
      "Ġrescue": 7088,
      "ĠjosÃ©": 7089,
      "Ġjenn": 7090,
      "Ġimprison": 7091,
      "Ġ13th": 7092,
      "Ġcash": 7093,
      "##Â°": 7094,
      "Ġwhilst": 7095,
      "Ġownership": 7096,
      "Ġlearn": 7097,
      "Ġdiet": 7098,
      "Ġanch": 7099,
      "Ġsuperior": 7100,
      "Ġwelsh": 7101,
      "Ġaspects": 7102,
      "##etime": 7103,
      "Ġeleven": 7104,
      "Ġlosses": 7105,
      "Ġdave": 7106,
      "Ġnorman": 7107,
      "Ġwine": 7108,
      "Ġdall": 7109,
      "Ġhungary": 7110,
      "Ġfilled": 7111,
      "Ġmorgan": 7112,
      "Ġlun": 7113,
      "Ġchildhood": 7114,
      "Ġtie": 7115,
      "Ġlaboratory": 7116,
      "Ġconcerns": 7117,
      "##vant": 7118,
      "Ġdevices": 7119,
      "##ele": 7120,
      "##igation": 7121,
      "Ġthing": 7122,
      "Ġportrayed": 7123,
      "##veland": 7124,
      "##Ðº": 7125,
      "Ġrice": 7126,
      "Ġcoc": 7127,
      "##icial": 7128,
      "Ġhunting": 7129,
      "Ġtack": 7130,
      "Ġcommem": 7131,
      "##othes": 7132,
      "Ġlock": 7133,
      "Ġpanel": 7134,
      "Ġadapted": 7135,
      "Ġupgr": 7136,
      "Ġdrag": 7137,
      "Ġmoder": 7138,
      "Ġconnecticut": 7139,
      "Ġcriticism": 7140,
      "Ġatm": 7141,
      "Ġpig": 7142,
      "Ġww": 7143,
      "Ġsoil": 7144,
      "Ġconstitutional": 7145,
      "Ġmeters": 7146,
      "##fted": 7147,
      "Ġpale": 7148,
      "Ġtwin": 7149,
      "Ġkevin": 7150,
      "Ġmichel": 7151,
      "##ture": 7152,
      "Ġpup": 7153,
      "##cho": 7154,
      "Ġdisappe": 7155,
      "##ello": 7156,
      "##15": 7157,
      "Ġbroadway": 7158,
      "Ġinterested": 7159,
      "Ġoccupation": 7160,
      "##eenth": 7161,
      "##rises": 7162,
      "Ġdir": 7163,
      "Ġsyl": 7164,
      "Ġdesert": 7165,
      "Ġcod": 7166,
      "Ġmessage": 7167,
      "Ġmond": 7168,
      "Ġsweet": 7169,
      "Ġinteg": 7170,
      "Ġkarl": 7171,
      "Ġsuccessor": 7172,
      "Ġreplacement": 7173,
      "Ġtot": 7174,
      "Ġnovels": 7175,
      "Ġbour": 7176,
      "Ġcleveland": 7177,
      "Ġeat": 7178,
      "Ġcovering": 7179,
      "Ġbruce": 7180,
      "Ġprisoners": 7181,
      "Ġsugar": 7182,
      "Ġcommune": 7183,
      "Ġsuggests": 7184,
      "Ġchalleng": 7185,
      "Ġuniverse": 7186,
      "##ifications": 7187,
      "Ġexplo": 7188,
      "##gow": 7189,
      "Ġfurn": 7190,
      "Ġtamil": 7191,
      "Ġfruit": 7192,
      "Ġharm": 7193,
      "Ġdre": 7194,
      "Ġensure": 7195,
      "##vements": 7196,
      "Ġsatellite": 7197,
      "Ġnazi": 7198,
      "Ġtab": 7199,
      "Ġencoun": 7200,
      "##utation": 7201,
      "Ġnan": 7202,
      "Ġack": 7203,
      "Ġkennedy": 7204,
      "Ġtip": 7205,
      "Ġpron": 7206,
      "Ġ1898": 7207,
      "Ġrelative": 7208,
      "Ġraw": 7209,
      "Ġinstruments": 7210,
      "Ġmounted": 7211,
      "Ġmack": 7212,
      "Ġclassified": 7213,
      "Ġcharter": 7214,
      "Ġsoldier": 7215,
      "Ġghost": 7216,
      "##pson": 7217,
      "Ġvl": 7218,
      "Ġni": 7219,
      "Ġoption": 7220,
      "##adi": 7221,
      "Ġcable": 7222,
      "##atherine": 7223,
      "Ġsoundtrack": 7224,
      "Ġfishing": 7225,
      "Ġpure": 7226,
      "##timore": 7227,
      "Ġtied": 7228,
      "##uri": 7229,
      "Ġremember": 7230,
      "Ġmeets": 7231,
      "Ġindonesia": 7232,
      "Ġhonour": 7233,
      "Ġsuicide": 7234,
      "Ġspeaker": 7235,
      "Ġforming": 7236,
      "Ġportugal": 7237,
      "Ġcapable": 7238,
      "Ġdepending": 7239,
      "Ġsurve": 7240,
      "Ġkelly": 7241,
      "Ġbangl": 7242,
      "Ġbund": 7243,
      "Ġdepression": 7244,
      "Ġbaltimore": 7245,
      "Ġbarn": 7246,
      "Ġrussell": 7247,
      "Ġpandemic": 7248,
      "Ġwooden": 7249,
      "Ġsongwriter": 7250,
      "Ġ10th": 7251,
      "Ġfriendly": 7252,
      "Ġboundary": 7253,
      "Ġpreserv": 7254,
      "##Ã³w": 7255,
      "Ġvinc": 7256,
      "Ġdifferences": 7257,
      "Ġyug": 7258,
      "Ġrecru": 7259,
      "##18": 7260,
      "##ailand": 7261,
      "Ġarn": 7262,
      "Ġworksh": 7263,
      "Ġ08": 7264,
      "Ġsingh": 7265,
      "Ġrates": 7266,
      "##cription": 7267,
      "Ġregulations": 7268,
      "Ġcharts": 7269,
      "##face": 7270,
      "Ġsurre": 7271,
      "Ġseattle": 7272,
      "Ġja": 7273,
      "Ġpittsburgh": 7274,
      "Ġ15th": 7275,
      "Ġlac": 7276,
      "##enez": 7277,
      "##oen": 7278,
      "Ġrio": 7279,
      "##á»": 7280,
      "Ġrit": 7281,
      "Ġgardens": 7282,
      "Ġwire": 7283,
      "Ġstruck": 7284,
      "Ġwes": 7285,
      "Ġfoss": 7286,
      "Ġrevival": 7287,
      "##otte": 7288,
      "Ġadding": 7289,
      "Ġcolomb": 7290,
      "##ager": 7291,
      "Ġago": 7292,
      "##vens": 7293,
      "Ġ@": 7294,
      "Ġdesigner": 7295,
      "##rons": 7296,
      "Ġtunnel": 7297,
      "Ġthailand": 7298,
      "Ġnest": 7299,
      "Ġguitarist": 7300,
      "Ġsarah": 7301,
      "Ġstewart": 7302,
      "Ġdated": 7303,
      "Ġemployment": 7304,
      "Ġpartners": 7305,
      "Ġopinion": 7306,
      "Ġmalaysia": 7307,
      "Ġhear": 7308,
      "Ġans": 7309,
      "Ġpopularity": 7310,
      "##16": 7311,
      "Ġliverpool": 7312,
      "##iÃ³n": 7313,
      "Ġnetworks": 7314,
      "Ġchanging": 7315,
      "##lete": 7316,
      "Ġcards": 7317,
      "##udi": 7318,
      "Ġinfrast": 7319,
      "Ġcrash": 7320,
      "Ġflows": 7321,
      "##angel": 7322,
      "Ġstayed": 7323,
      "Ġcoff": 7324,
      "Ġanimated": 7325,
      "##edia": 7326,
      "Ġglas": 7327,
      "Ġloyal": 7328,
      "Ġequipped": 7329,
      "Ġvisitors": 7330,
      "Ġmak": 7331,
      "Ġinitiative": 7332,
      "Ġclassification": 7333,
      "Ġdomain": 7334,
      "Ġchristopher": 7335,
      "Ġ1899": 7336,
      "Ġcontinuing": 7337,
      "Ġathletics": 7338,
      "Ġrequirements": 7339,
      "Ġtechnique": 7340,
      "Ġsolution": 7341,
      "##isf": 7342,
      "Ġwright": 7343,
      "Ġpierre": 7344,
      "Ġappearing": 7345,
      "Ġinvent": 7346,
      "Ġ09": 7347,
      "Ġng": 7348,
      "Ġ167": 7349,
      "Ġarchb": 7350,
      "Ġnomination": 7351,
      "Ġtests": 7352,
      "Ġearn": 7353,
      "Ġzero": 7354,
      "Ġentering": 7355,
      "##ares": 7356,
      "Ġdrop": 7357,
      "Ġstrategic": 7358,
      "##oa": 7359,
      "##alf": 7360,
      "Ġtriple": 7361,
      "Ġpeaked": 7362,
      "##aly": 7363,
      "##ili": 7364,
      "Ġ14th": 7365,
      "Ġtorn": 7366,
      "Ġbenefit": 7367,
      "Ġpic": 7368,
      "Ġmarkets": 7369,
      "Ġlegislature": 7370,
      "Ġ1890": 7371,
      "Ġ172": 7372,
      "##ache": 7373,
      "Ġmarketing": 7374,
      "##under": 7375,
      "Ġdebate": 7376,
      "Ġdriven": 7377,
      "Ġtribe": 7378,
      "Ġcurt": 7379,
      "##pers": 7380,
      "Ġprocesses": 7381,
      "Ġreplacing": 7382,
      "Ġvik": 7383,
      "Ġmanner": 7384,
      "Ġtier": 7385,
      "##anian": 7386,
      "Ġcompetitions": 7387,
      "Ġcoverage": 7388,
      "##pm": 7389,
      "Ġswitch": 7390,
      "Ġthompson": 7391,
      "Ġmedals": 7392,
      "Ġrising": 7393,
      "##ielder": 7394,
      "Ġhosts": 7395,
      "Ġcited": 7396,
      "Ġbind": 7397,
      "Ġparks": 7398,
      "##rix": 7399,
      "Ġhunter": 7400,
      "Ġaccounts": 7401,
      "##ÃŃn": 7402,
      "Ġ06": 7403,
      "Ġbasin": 7404,
      "Ġapple": 7405,
      "Ġrestoration": 7406,
      "Ġinfluential": 7407,
      "Ġlakes": 7408,
      "Ġdragon": 7409,
      "Ġpant": 7410,
      "Ġlicense": 7411,
      "Ġindustries": 7412,
      "Ġeasy": 7413,
      "Ġbattery": 7414,
      "Ġfilmed": 7415,
      "Ġshell": 7416,
      "##uster": 7417,
      "##apolis": 7418,
      "Ġsharp": 7419,
      "Ġoffering": 7420,
      "Ġ07": 7421,
      "Ġcampbell": 7422,
      "Ġ05": 7423,
      "Ġ173": 7424,
      "##iling": 7425,
      "Ġvisiting": 7426,
      "Ġdna": 7427,
      "##ugu": 7428,
      "Ġsurgery": 7429,
      "##rapy": 7430,
      "Ġrequires": 7431,
      "##iller": 7432,
      "Ġfiled": 7433,
      "Ġrepr": 7434,
      "##ception": 7435,
      "Ġnord": 7436,
      "Ġadaptation": 7437,
      "Ġgast": 7438,
      "Ġ169": 7439,
      "##coming": 7440,
      "Ġinspe": 7441,
      "Ġkg": 7442,
      "Ġgone": 7443,
      "Ġvolumes": 7444,
      "Ġshif": 7445,
      "Ġlandscape": 7446,
      "Ġsurname": 7447,
      "Ġmarshall": 7448,
      "Ġexpect": 7449,
      "Ġdeaths": 7450,
      "Ġå": 7451,
      "Ġ1896": 7452,
      "Ġwhereas": 7453,
      "Ġmars": 7454,
      "Ġdisord": 7455,
      "Ġbattles": 7456,
      "Ġshield": 7457,
      "Ġscand": 7458,
      "Ġexerc": 7459,
      "Ġprefect": 7460,
      "##ifer": 7461,
      "##nia": 7462,
      "##aken": 7463,
      "Ġmodified": 7464,
      "Ġportrait": 7465,
      "Ġ165": 7466,
      "Ġreun": 7467,
      "##rÃ©": 7468,
      "Ġhispan": 7469,
      "##ucks": 7470,
      "Ġnelson": 7471,
      "Ġlocality": 7472,
      "Ġlud": 7473,
      "##Ã´": 7474,
      "Ġsustain": 7475,
      "##phone": 7476,
      "Ġfrequency": 7477,
      "Ġmonitor": 7478,
      "Ġaustin": 7479,
      "Ġoutput": 7480,
      "##nn": 7481,
      "Ġserge": 7482,
      "Ġsuit": 7483,
      "##Ã«": 7484,
      "##vere": 7485,
      "Ġexperimental": 7486,
      "##atically": 7487,
      "Ġintellect": 7488,
      "Ġchand": 7489,
      "Ġbail": 7490,
      "Ġarchitectural": 7491,
      "Ġgoth": 7492,
      "Ġraise": 7493,
      "##vest": 7494,
      "##hus": 7495,
      "Ġmerchant": 7496,
      "Ġpowered": 7497,
      "Ġ11th": 7498,
      "##break": 7499,
      "Ġfib": 7500,
      "##olo": 7501,
      "Ġpc": 7502,
      "Ġsultan": 7503,
      "Ġoperational": 7504,
      "Ġsupposed": 7505,
      "Ġinstance": 7506,
      "Ġ1895": 7507,
      "##zi": 7508,
      "Ġoccasionally": 7509,
      "##pir": 7510,
      "Ġadults": 7511,
      "##elli": 7512,
      "Ġterritories": 7513,
      "Ġmainten": 7514,
      "Ġcole": 7515,
      "Ġdrawing": 7516,
      "Ġnash": 7517,
      "##cles": 7518,
      "Ġcompeting": 7519,
      "Ġ8th": 7520,
      "##Ã¥": 7521,
      "Ġadams": 7522,
      "##ceived": 7523,
      "Ġatmosp": 7524,
      "##iti": 7525,
      "##ashed": 7526,
      "Ġmason": 7527,
      "Ġexception": 7528,
      "Ġsurrender": 7529,
      "Ġ>": 7530,
      "Ġpenalty": 7531,
      "Ġnut": 7532,
      "Ġreact": 7533,
      "Ġnoble": 7534,
      "Ġbreaking": 7535,
      "Ġgraduating": 7536,
      "Ġconstruct": 7537,
      "Ġappointment": 7538,
      "Ġforests": 7539,
      "Ġconcrete": 7540,
      "Ġelectrical": 7541,
      "##load": 7542,
      "Ġhanded": 7543,
      "Ġcave": 7544,
      "Ġvul": 7545,
      "##abled": 7546,
      "Ġinstrumental": 7547,
      "Ġnba": 7548,
      "Ġrhyth": 7549,
      "##mus": 7550,
      "Ġcomponents": 7551,
      "Ġninth": 7552,
      "Ġguine": 7553,
      "Ġmaintenance": 7554,
      "##wall": 7555,
      "Ġwrong": 7556,
      "Ġsecure": 7557,
      "Ġfranklin": 7558,
      "##uous": 7559,
      "Ġsword": 7560,
      "Ġrunner": 7561,
      "Ġdak": 7562,
      "##iency": 7563,
      "Ġfictional": 7564,
      "Ġsend": 7565,
      "Ġvoting": 7566,
      "Ġexperiences": 7567,
      "Ġfile": 7568,
      "Ġtrading": 7569,
      "Ġsubur": 7570,
      "Ġabbey": 7571,
      "Ġeliminated": 7572,
      "##emen": 7573,
      "Ġamendment": 7574,
      "Ġtort": 7575,
      "Ġsigning": 7576,
      "##rimin": 7577,
      "Ġachieve": 7578,
      "Ġfacing": 7579,
      "Ġabsor": 7580,
      "Ġbenn": 7581,
      "Ġmurray": 7582,
      "Ġretre": 7583,
      "Ġanything": 7584,
      "##itals": 7585,
      "Ġmasters": 7586,
      "Ġvessels": 7587,
      "Ġcelebrated": 7588,
      "Ġinfrastructure": 7589,
      "Ġuss": 7590,
      "Ġ1897": 7591,
      "Ġclock": 7592,
      "Ġproposal": 7593,
      "Ġthreatened": 7594,
      "Ġvenez": 7595,
      "Ġrecept": 7596,
      "Ġhelping": 7597,
      "Ġvessel": 7598,
      "##aked": 7599,
      "Ġsegment": 7600,
      "Ġbin": 7601,
      "##agh": 7602,
      "##mill": 7603,
      "##mate": 7604,
      "Ġbog": 7605,
      "##orted": 7606,
      "Ġbranches": 7607,
      "Ġug": 7608,
      "Ġminimum": 7609,
      "##str": 7610,
      "Ġexecuted": 7611,
      "##13": 7612,
      "Ġbuy": 7613,
      "##orship": 7614,
      "Ġengineers": 7615,
      "##rog": 7616,
      "Ġintegrated": 7617,
      "Ġexplained": 7618,
      "Ġmorris": 7619,
      "Ġsummit": 7620,
      "Ġshock": 7621,
      "Ġrobinson": 7622,
      "Ġunderstand": 7623,
      "Ġcorporate": 7624,
      "Ġarchbishop": 7625,
      "Ġprogressive": 7626,
      "Ġserial": 7627,
      "Ġworship": 7628,
      "Ġincreasingly": 7629,
      "Ġcharity": 7630,
      "##rs": 7631,
      "Ġyugoslav": 7632,
      "Ġstanley": 7633,
      "Ġcarter": 7634,
      "Ġpse": 7635,
      "Ġparent": 7636,
      "##mingham": 7637,
      "##bach": 7638,
      "##arn": 7639,
      "Ġstudying": 7640,
      "Ġsurviving": 7641,
      "Ġ162": 7642,
      "Ġjobs": 7643,
      "##wed": 7644,
      "Ġpink": 7645,
      "Ġexternal": 7646,
      "Ġdescription": 7647,
      "##14": 7648,
      "Ġmonarch": 7649,
      "Ġ1920s": 7650,
      "Ġsig": 7651,
      "Ġboats": 7652,
      "Ġfold": 7653,
      "Ġclim": 7654,
      "Ġrebell": 7655,
      "Ġtransit": 7656,
      "Ġhend": 7657,
      "Ġdeclined": 7658,
      "##17": 7659,
      "##eas": 7660,
      "Ġsib": 7661,
      "Ġig": 7662,
      "Ġtong": 7663,
      "Ġcrus": 7664,
      "Ġcommerce": 7665,
      "Ġcousin": 7666,
      "Ġmong": 7667,
      "##asa": 7668,
      "Ġrounds": 7669,
      "Ġsufficient": 7670,
      "Ġther": 7671,
      "Ġneither": 7672,
      "Ġouter": 7673,
      "##eur": 7674,
      "Ġjimmy": 7675,
      "Ġgrown": 7676,
      "Ġjurisd": 7677,
      "Ġcenters": 7678,
      "Ġprompt": 7679,
      "Ġleban": 7680,
      "Ġparticipation": 7681,
      "##illy": 7682,
      "##what": 7683,
      "Ġstrongly": 7684,
      "##arked": 7685,
      "Ġtru": 7686,
      "Ġpreserved": 7687,
      "Ġbernard": 7688,
      "Ġcompletion": 7689,
      "Ġtools": 7690,
      "Ġwides": 7691,
      "Ġeveryone": 7692,
      "Ġsprings": 7693,
      "Ġted": 7694,
      "Ġromantic": 7695,
      "Ġmissions": 7696,
      "Ġforb": 7697,
      "Ġride": 7698,
      "Ġdenied": 7699,
      "Ġlion": 7700,
      "Ġsomewhat": 7701,
      "Ġillegal": 7702,
      "Ġbilly": 7703,
      "Ġcompilation": 7704,
      "Ġreinfor": 7705,
      "Ġannually": 7706,
      "Ġports": 7707,
      "##lov": 7708,
      "Ġcyl": 7709,
      "##net": 7710,
      "Ġmovements": 7711,
      "Ġbrooklyn": 7712,
      "Ġsponsored": 7713,
      "Ġready": 7714,
      "Ġfinland": 7715,
      "Ġindicate": 7716,
      "Ġhoriz": 7717,
      "Ġnewspapers": 7718,
      "Ġcommemor": 7719,
      "Ġprinted": 7720,
      "Ġapproval": 7721,
      "Ġfantasy": 7722,
      "Ġrepresentation": 7723,
      "Ġcarib": 7724,
      "Ġsaints": 7725,
      "Ġpole": 7726,
      "##ÅĦ": 7727,
      "Ġlingu": 7728,
      "##hai": 7729,
      "Ġmonastery": 7730,
      "Ġrevenue": 7731,
      "Ġvin": 7732,
      "Ġske": 7733,
      "Ġproducers": 7734,
      "##tha": 7735,
      "Ġteach": 7736,
      "##rell": 7737,
      "Ġneck": 7738,
      "##urt": 7739,
      "Ġhappened": 7740,
      "Ġdallas": 7741,
      "##estyle": 7742,
      "Ġphone": 7743,
      "Ġradical": 7744,
      "Ġbirmingham": 7745,
      "##cht": 7746,
      "Ġhappy": 7747,
      "Ġgraham": 7748,
      "Ġbaker": 7749,
      "Ġflash": 7750,
      "Ġbutter": 7751,
      "Ġbact": 7752,
      "##opter": 7753,
      "Ġgiant": 7754,
      "##night": 7755,
      "Ġadopt": 7756,
      "Ġinnings": 7757,
      "Ġbears": 7758,
      "Ġclinical": 7759,
      "Ġassign": 7760,
      "Ġoblast": 7761,
      "Ġlob": 7762,
      "Ġ1893": 7763,
      "Ġmovies": 7764,
      "Ġsuspended": 7765,
      "Ġpseud": 7766,
      "Ġsimilarly": 7767,
      "##oria": 7768,
      "Ġ9th": 7769,
      "Ġhundreds": 7770,
      "Ġsudden": 7771,
      "Ġsurrounded": 7772,
      "Ġue": 7773,
      "##ovo": 7774,
      "Ġhunt": 7775,
      "##ruption": 7776,
      "Ġpull": 7777,
      "Ġosc": 7778,
      "##orf": 7779,
      "Ġtalent": 7780,
      "Ġhyper": 7781,
      "Ġdual": 7782,
      "Ġhuge": 7783,
      "##ando": 7784,
      "Ġconsiderable": 7785,
      "Ġdialect": 7786,
      "Ġprol": 7787,
      "Ġhem": 7788,
      "Ġguil": 7789,
      "Ġfled": 7790,
      "Ġpitch": 7791,
      "Ġ1889": 7792,
      "Ġexisted": 7793,
      "Ġog": 7794,
      "##iac": 7795,
      "##hard": 7796,
      "Ġstatue": 7797,
      "Ġeug": 7798,
      "##part": 7799,
      "Ġundert": 7800,
      "Ġreputation": 7801,
      "##ui": 7802,
      "Ġspoken": 7803,
      "Ġlan": 7804,
      "Ġrobin": 7805,
      "Ġbenj": 7806,
      "Ġbeet": 7807,
      "Ġlongest": 7808,
      "Ġmck": 7809,
      "Ġstu": 7810,
      "Ġgenre": 7811,
      "Ġfasc": 7812,
      "##iki": 7813,
      "Ġpharm": 7814,
      "Ġinjuries": 7815,
      "##eler": 7816,
      "Ġswimming": 7817,
      "Ġlicensed": 7818,
      "Ġtimber": 7819,
      "##equ": 7820,
      "Ġremix": 7821,
      "Ġgrandfather": 7822,
      "##hum": 7823,
      "Ġ163": 7824,
      "Ġjoy": 7825,
      "Ġela": 7826,
      "Ġ1885": 7827,
      "Ġprocessing": 7828,
      "Ġextreme": 7829,
      "##urg": 7830,
      "Ġ1892": 7831,
      "Ġchoir": 7832,
      "##chang": 7833,
      "Ġresid": 7834,
      "Ġpassage": 7835,
      "Ġeu": 7836,
      "Ġcbs": 7837,
      "Ġweekend": 7838,
      "Ġsymphony": 7839,
      "Ġgrace": 7840,
      "##oust": 7841,
      "Ġhorses": 7842,
      "Ġamongst": 7843,
      "Ġspecim": 7844,
      "##ashi": 7845,
      "Ġtib": 7846,
      "Ġtech": 7847,
      "Ġclan": 7848,
      "Ġian": 7849,
      "Ġ1894": 7850,
      "##otype": 7851,
      "Ġtill": 7852,
      "##oking": 7853,
      "Ġdecline": 7854,
      "Ġmechanical": 7855,
      "Ġjudges": 7856,
      "Ġkos": 7857,
      "Ġgy": 7858,
      "##lock": 7859,
      "Ġdefinition": 7860,
      "Ġturning": 7861,
      "Ġtap": 7862,
      "##nas": 7863,
      "##jun": 7864,
      "Ġcatch": 7865,
      "Ġhence": 7866,
      "Ġau": 7867,
      "Ġinqu": 7868,
      "Ġmassive": 7869,
      "##usalem": 7870,
      "Ġcontinental": 7871,
      "##lie": 7872,
      "Ġcontribution": 7873,
      "Ġinvolvement": 7874,
      "Ġchemistry": 7875,
      "Ġ04": 7876,
      "##ayan": 7877,
      "##attan": 7878,
      "Ġforum": 7879,
      "Ġlists": 7880,
      "ĠfranÃ§": 7881,
      "Ġbangladesh": 7882,
      "Ġjohnny": 7883,
      "Ġkm2": 7884,
      "Ġtreated": 7885,
      "##chell": 7886,
      "##oh": 7887,
      "Ġresearchers": 7888,
      "##rin": 7889,
      "Ġprinciples": 7890,
      "Ġindians": 7891,
      "##olid": 7892,
      "Ġsculpture": 7893,
      "Ġpersonality": 7894,
      "Ġactivist": 7895,
      "Ġdw": 7896,
      "Ġhub": 7897,
      "Ġyoungest": 7898,
      "##rehens": 7899,
      "Ġshares": 7900,
      "Ġmeetings": 7901,
      "ĠmÃ©": 7902,
      "Ġagents": 7903,
      "Ġwag": 7904,
      "##gradu": 7905,
      "##state": 7906,
      "Ġbeauty": 7907,
      "##lington": 7908,
      "Ġcontroversy": 7909,
      "Ġmanh": 7910,
      "Ġbelt": 7911,
      "Ġhelic": 7912,
      "Ġpleas": 7913,
      "Ġelig": 7914,
      "Ġevil": 7915,
      "Ġmills": 7916,
      "##ribute": 7917,
      "Ġduo": 7918,
      "##utt": 7919,
      "##enses": 7920,
      "Ġweapon": 7921,
      "Ġessential": 7922,
      "Ġ159": 7923,
      "##pread": 7924,
      "Ġmines": 7925,
      "Ġrecommended": 7926,
      "Ġplain": 7927,
      "Ġgur": 7928,
      "Ġvisible": 7929,
      "Ġdeliver": 7930,
      "##ope": 7931,
      "Ġroots": 7932,
      "##master": 7933,
      "Ġreven": 7934,
      "Ġmatthew": 7935,
      "Ġunp": 7936,
      "Ġsiege": 7937,
      "Ġcale": 7938,
      "##amental": 7939,
      "Ġjerusalem": 7940,
      "##ranean": 7941,
      "##bean": 7942,
      "Ġhell": 7943,
      "Ġcord": 7944,
      "Ġhindu": 7945,
      "Ġutah": 7946,
      "Ġdonated": 7947,
      "Ġfunded": 7948,
      "Ġarkansas": 7949,
      "Ġblocks": 7950,
      "##fast": 7951,
      "Ġml": 7952,
      "Ġsupporters": 7953,
      "##oked": 7954,
      "Ġ1891": 7955,
      "##otes": 7956,
      "Ġdh": 7957,
      "##mund": 7958,
      "Ġrifle": 7959,
      "Ġmarks": 7960,
      "Ġcasual": 7961,
      "Ġhull": 7962,
      "Ġvas": 7963,
      "Ġfram": 7964,
      "Ġwidespread": 7965,
      "Ġlasted": 7966,
      "Ġschedule": 7967,
      "Ġnbc": 7968,
      "Ġblind": 7969,
      "Ġeffectively": 7970,
      "Ġcarp": 7971,
      "Ġsevent": 7972,
      "Ġpremiere": 7973,
      "##isition": 7974,
      "Ġparticipants": 7975,
      "Ġbible": 7976,
      "Ġ700": 7977,
      "Ġdetermin": 7978,
      "Ġpatient": 7979,
      "Ġgear": 7980,
      "Ġindicated": 7981,
      "Ġarabic": 7982,
      "Ġwarm": 7983,
      "Ġpregn": 7984,
      "##inction": 7985,
      "Ġtob": 7986,
      "Ġyout": 7987,
      "Ġhabitat": 7988,
      "Ġcultiv": 7989,
      "Ġhurricane": 7990,
      "Ġfarmers": 7991,
      "Ġ03": 7992,
      "Ġmadrid": 7993,
      "##ocol": 7994,
      "Ġwedding": 7995,
      "Ġkum": 7996,
      "Ġcoron": 7997,
      "Ġadvertising": 7998,
      "Ġ02": 7999,
      "Ġillustrated": 8000,
      "Ġvalid": 8001,
      "Ġkee": 8002,
      "Ġintention": 8003,
      "Ġacted": 8004,
      "Ġ1888": 8005,
      "Ġphotography": 8006,
      "Ġstress": 8007,
      "##Ã¶r": 8008,
      "Ġoptim": 8009,
      "Ġelevation": 8010,
      "Ġvoy": 8011,
      "##after": 8012,
      "Ġbelgian": 8013,
      "Ġtribes": 8014,
      "Ġregul": 8015,
      "Ġcontroversial": 8016,
      "Ġlip": 8017,
      "Ġpm": 8018,
      "##uki": 8019,
      "##cia": 8020,
      "Ġscientists": 8021,
      "Ġwonder": 8022,
      "Ġvictorian": 8023,
      "##rates": 8024,
      "Ġguards": 8025,
      "Ġsuffering": 8026,
      "Ġsurviv": 8027,
      "Ġknew": 8028,
      "Ġapparently": 8029,
      "Ġsynthes": 8030,
      "Ġvideos": 8031,
      "Ġdemocracy": 8032,
      "##gie": 8033,
      "Ġrandom": 8034,
      "Ġglasgow": 8035,
      "##teenth": 8036,
      "Ġpopulations": 8037,
      "Ġbaptist": 8038,
      "Ġgary": 8039,
      "##iah": 8040,
      "Ġcarlos": 8041,
      "Ġjason": 8042,
      "Ġheb": 8043,
      "##aware": 8044,
      "Ġtempor": 8045,
      "Ġadventure": 8046,
      "Ġromania": 8047,
      "Ġhearing": 8048,
      "Ġvenezuel": 8049,
      "Ġegyptian": 8050,
      "Ġsentenced": 8051,
      "##bul": 8052,
      "Ġinse": 8053,
      "##ÈĻ": 8054,
      "##rose": 8055,
      "Ġjury": 8056,
      "##iden": 8057,
      "Ġmath": 8058,
      "Ġkath": 8059,
      "Ġ1865": 8060,
      "##yard": 8061,
      "Ġcouples": 8062,
      "Ġmini": 8063,
      "Ġisa": 8064,
      "Ġconcerned": 8065,
      "Ġportland": 8066,
      "Ġ1000": 8067,
      "##ener": 8068,
      "Ġdemolished": 8069,
      "Ġprovinces": 8070,
      "Ġintersection": 8071,
      "Ġgovernments": 8072,
      "Ġproport": 8073,
      "Ġvoiced": 8074,
      "Ġattributed": 8075,
      "Ġeditions": 8076,
      "Ġevans": 8077,
      "Ġtransmission": 8078,
      "Ġruling": 8079,
      "Ġborders": 8080,
      "##rov": 8081,
      "Ġecc": 8082,
      "Ġion": 8083,
      "Ġrichmond": 8084,
      "Ġacknow": 8085,
      "##rec": 8086,
      "Ġstatistics": 8087,
      "Ġwants": 8088,
      "Ġsubmarine": 8089,
      "Ġ1880": 8090,
      "Ġstruggle": 8091,
      "Ġlen": 8092,
      "Ġstem": 8093,
      "Ġbenjamin": 8094,
      "Ġtrig": 8095,
      "Ġdestruction": 8096,
      "Ġsessions": 8097,
      "Ġmanif": 8098,
      "Ġversus": 8099,
      "Ġthemes": 8100,
      "Ġbusinessman": 8101,
      "Ġdiction": 8102,
      "##ike": 8103,
      "Ġguer": 8104,
      "Ġboss": 8105,
      "Ġ130": 8106,
      "Ġdenn": 8107,
      "Ġcooperation": 8108,
      "Ġmilan": 8109,
      "Ġreprod": 8110,
      "Ġreportedly": 8111,
      "##oda": 8112,
      "Ġ158": 8113,
      "Ġdelhi": 8114,
      "##uda": 8115,
      "Ġaffiliated": 8116,
      "Ġorle": 8117,
      "Ġposted": 8118,
      "Ġmatters": 8119,
      "Ġincom": 8120,
      "Ġcomplic": 8121,
      "Ġseeking": 8122,
      "##ellor": 8123,
      "Ġstrict": 8124,
      "Ġfitz": 8125,
      "Ġratio": 8126,
      "##sis": 8127,
      "Ġdrugs": 8128,
      "##iciency": 8129,
      "##othe": 8130,
      "Ġrated": 8131,
      "Ġstyles": 8132,
      "Ġbelonging": 8133,
      "Ġnormally": 8134,
      "Ġmuhammad": 8135,
      "Ġcompetitive": 8136,
      "Ġfrances": 8137,
      "Ġliquid": 8138,
      "##amps": 8139,
      "Ġprofile": 8140,
      "##anny": 8141,
      "Ġconfer": 8142,
      "Ġcivilian": 8143,
      "Ġerected": 8144,
      "Ġachievement": 8145,
      "Ġhistorically": 8146,
      "Ġspaces": 8147,
      "Ġrelationships": 8148,
      "##antine": 8149,
      "##Ãł": 8150,
      "Ġwaste": 8151,
      "Ġdrums": 8152,
      "Ġwarren": 8153,
      "##dd": 8154,
      "Ġattracted": 8155,
      "Ġbirthday": 8156,
      "##ensis": 8157,
      "Ġmediter": 8158,
      "Ġbarry": 8159,
      "Ġalice": 8160,
      "Ġstab": 8161,
      "Ġretrie": 8162,
      "Ġoverseas": 8163,
      "Ġbuffalo": 8164,
      "Ġnev": 8165,
      "Ġabroad": 8166,
      "##ooth": 8167,
      "Ġsung": 8168,
      "Ġbak": 8169,
      "Ġkin": 8170,
      "Ġspoke": 8171,
      "Ġhampshire": 8172,
      "Ġplatforms": 8173,
      "Ġstatist": 8174,
      "Ġkun": 8175,
      "Ġphr": 8176,
      "Ġthanks": 8177,
      "Ġregime": 8178,
      "Ġagencies": 8179,
      "##iop": 8180,
      "Ġincumb": 8181,
      "Ġphoen": 8182,
      "Ġtraveled": 8183,
      "Ġcontested": 8184,
      "Ġwake": 8185,
      "##ounced": 8186,
      "##illo": 8187,
      "Ġgradually": 8188,
      "Ġphenom": 8189,
      "Ġstable": 8190,
      "Ġromanian": 8191,
      "Ġserbian": 8192,
      "Ġsimult": 8193,
      "##mel": 8194,
      "##ouver": 8195,
      "Ġguar": 8196,
      "Ġrolling": 8197,
      "Ġcaf": 8198,
      "Ġsv": 8199,
      "Ġkon": 8200,
      "Ġunusual": 8201,
      "##ails": 8202,
      "Ġmonte": 8203,
      "Ġmarath": 8204,
      "Ġaccomp": 8205,
      "Ġpsychology": 8206,
      "Ġpatron": 8207,
      "Ġsimultane": 8208,
      "Ġorleans": 8209,
      "##oz": 8210,
      "Ġ1861": 8211,
      "Ġtexts": 8212,
      "Ġ1887": 8213,
      "Ġbic": 8214,
      "##hetic": 8215,
      "Ġharbor": 8216,
      "Ġbiological": 8217,
      "Ġsounds": 8218,
      "##illing": 8219,
      "##aments": 8220,
      "Ġtribut": 8221,
      "Ġfalse": 8222,
      "Ġlig": 8223,
      "Ġdiscip": 8224,
      "Ġivan": 8225,
      "Ġcargo": 8226,
      "Ġtourism": 8227,
      "Ġsupplies": 8228,
      "Ġdominated": 8229,
      "##iors": 8230,
      "Ġ1870": 8231,
      "Ġrecovered": 8232,
      "Ġdescent": 8233,
      "Ġriding": 8234,
      "##lag": 8235,
      "Ġwarner": 8236,
      "Ġaccla": 8237,
      "Ġcancelled": 8238,
      "##anner": 8239,
      "Ġdetailed": 8240,
      "Ġdeparture": 8241,
      "Ġmanaging": 8242,
      "##nat": 8243,
      "Ġvanc": 8244,
      "Ġpeoples": 8245,
      "Ġbri": 8246,
      "Ġvoters": 8247,
      "Ġkeeping": 8248,
      "Ġemerged": 8249,
      "Ġfinnish": 8250,
      "##rus": 8251,
      "Ġsic": 8252,
      "Ġobtain": 8253,
      "Ġdiameter": 8254,
      "Ġninet": 8255,
      "Ġvenue": 8256,
      "Ġremainder": 8257,
      "##osph": 8258,
      "Ġconcerts": 8259,
      "Ġyoutube": 8260,
      "Ġcharlie": 8261,
      "Ġ1864": 8262,
      "Ġnit": 8263,
      "Ġtrials": 8264,
      "Ġdeck": 8265,
      "Ġwildlife": 8266,
      "##Ã¨re": 8267,
      "##ucted": 8268,
      "Ġsupports": 8269,
      "Ġfalling": 8270,
      "Ġtruck": 8271,
      "Ġsees": 8272,
      "##inations": 8273,
      "##phal": 8274,
      "Ġtoy": 8275,
      "Ġuseful": 8276,
      "Ġhorror": 8277,
      "##isa": 8278,
      "##mic": 8279,
      "Ġrapidly": 8280,
      "Ġillness": 8281,
      "Ġdescribe": 8282,
      "Ġclaiming": 8283,
      "Ġimmediate": 8284,
      "##kan": 8285,
      "##cycl": 8286,
      "##ecess": 8287,
      "Ġangl": 8288,
      "Ġoccasions": 8289,
      "Ġbegun": 8290,
      "Ġ<": 8291,
      "Ġandy": 8292,
      "Ġpredecess": 8293,
      "Ġchess": 8294,
      "Ġkiss": 8295,
      "Ġdatab": 8296,
      "Ġwang": 8297,
      "Ġuniform": 8298,
      "Ġdefending": 8299,
      "Ġfifa": 8300,
      "Ġsigns": 8301,
      "Ġjar": 8302,
      "##ĪĴ": 8303,
      "Ġintent": 8304,
      "Ġencouraged": 8305,
      "Ġexists": 8306,
      "Ġgreatly": 8307,
      "Ġrailways": 8308,
      "Ġelectricity": 8309,
      "##udes": 8310,
      "Ġhenri": 8311,
      "Ġcs": 8312,
      "Ġcomponent": 8313,
      "Ġ156": 8314,
      "##mates": 8315,
      "Ġmud": 8316,
      "Ġearthqu": 8317,
      "Ġmul": 8318,
      "Ġabuse": 8319,
      "Ġmediterranean": 8320,
      "Ġinch": 8321,
      "Ġsurge": 8322,
      "Ġthereafter": 8323,
      "Ġnicholas": 8324,
      "Ġwre": 8325,
      "Ġopportunities": 8326,
      "Ġabsence": 8327,
      "Ġafghanistan": 8328,
      "Ġcomprehens": 8329,
      "Ġquart": 8330,
      "Ġnhl": 8331,
      "Ġphoto": 8332,
      "Ġpastor": 8333,
      "Ġminority": 8334,
      "Ġprest": 8335,
      "##ologists": 8336,
      "##abilities": 8337,
      "##estone": 8338,
      "##yon": 8339,
      "Ġcircumst": 8340,
      "Ġrico": 8341,
      "Ġyu": 8342,
      "##oker": 8343,
      "Ġanyone": 8344,
      "Ġpredomin": 8345,
      "##itarian": 8346,
      "Ġexcav": 8347,
      "Ġallies": 8348,
      "Ġvalu": 8349,
      "Ġrocks": 8350,
      "Ġscout": 8351,
      "Ġtub": 8352,
      "Ġalcohol": 8353,
      "Ġyorkshire": 8354,
      "Ġinaugural": 8355,
      "##graduate": 8356,
      "##ÃŁ": 8357,
      "Ġcolleges": 8358,
      "Ġdesire": 8359,
      "##phan": 8360,
      "Ġsymp": 8361,
      "##uration": 8362,
      "Ġseeing": 8363,
      "Ġbris": 8364,
      "Ġ1886": 8365,
      "Ġdangerous": 8366,
      "Ġazerb": 8367,
      "##fts": 8368,
      "Ġtechnologies": 8369,
      "Ġstal": 8370,
      "Ġgiants": 8371,
      "Ġsteps": 8372,
      "Ġazerbai": 8373,
      "Ġperiods": 8374,
      "Ġrangers": 8375,
      "Ġcustomers": 8376,
      "Ġtraditionally": 8377,
      "Ġwrites": 8378,
      "Ġchi": 8379,
      "Ġnr": 8380,
      "##fare": 8381,
      "##fielder": 8382,
      "Ġvancouver": 8383,
      "Ġbenefits": 8384,
      "Ġquad": 8385,
      "##usted": 8386,
      "Ġarchaeological": 8387,
      "Ġmitchell": 8388,
      "Ġgenes": 8389,
      "Ġendemic": 8390,
      "Ġuefa": 8391,
      "Ġprotests": 8392,
      "##iri": 8393,
      "Ġkw": 8394,
      "Ġpioneer": 8395,
      "Ġtouring": 8396,
      "##overs": 8397,
      "Ġpersian": 8398,
      "##atus": 8399,
      "Ġrever": 8400,
      "##gb": 8401,
      "Ġcrimes": 8402,
      "Ġwayne": 8403,
      "Ġorient": 8404,
      "Ġhispanic": 8405,
      "Ġ1863": 8406,
      "Ġidentify": 8407,
      "##lings": 8408,
      "Ġathletes": 8409,
      "##leton": 8410,
      "Ġ1862": 8411,
      "Ġfloren": 8412,
      "Ġpruss": 8413,
      "##ennial": 8414,
      "##ected": 8415,
      "Ġcommanded": 8416,
      "Ġpd": 8417,
      "##nan": 8418,
      "Ġmonthly": 8419,
      "##à¸": 8420,
      "Ġski": 8421,
      "Ġexcess": 8422,
      "Ġluther": 8423,
      "Ġcomed": 8424,
      "Ġgw": 8425,
      "##crib": 8426,
      "Ġgriff": 8427,
      "Ġnevert": 8428,
      "Ġcopper": 8429,
      "Ġinspir": 8430,
      "Ġnevertheless": 8431,
      "Ġnigeria": 8432,
      "Ġintermed": 8433,
      "Ġlp": 8434,
      "Ġorigins": 8435,
      "Ġaimed": 8436,
      "Ġphotographs": 8437,
      "Ġcitizen": 8438,
      "Ġnova": 8439,
      "Ġsociet": 8440,
      "Ġbehalf": 8441,
      "Ġibn": 8442,
      "Ġgap": 8443,
      "Ġgermans": 8444,
      "Ġtenure": 8445,
      "Ġwool": 8446,
      "##ingly": 8447,
      "Ġorganised": 8448,
      "Ġensemb": 8449,
      "Ġhut": 8450,
      "ĠÏ": 8451,
      "Ġchannels": 8452,
      "Ġ1884": 8453,
      "Ġ157": 8454,
      "Ġbarbara": 8455,
      "Ġviewed": 8456,
      "Ġslo": 8457,
      "Ġgeomet": 8458,
      "Ġshang": 8459,
      "Ġarchives": 8460,
      "##ulu": 8461,
      "##opol": 8462,
      "Ġfrequent": 8463,
      "Ġspending": 8464,
      "##ijing": 8465,
      "Ġov": 8466,
      "Ġvirtual": 8467,
      "Ġpercentage": 8468,
      "Ġrepair": 8469,
      "##aman": 8470,
      "Ġviewers": 8471,
      "Ġsentence": 8472,
      "##very": 8473,
      "Ġarchive": 8474,
      "##emp": 8475,
      "Ġcharacteristics": 8476,
      "##roll": 8477,
      "Ġoutbreak": 8478,
      "##inter": 8479,
      "Ġsmart": 8480,
      "Ġabsol": 8481,
      "##boy": 8482,
      "Ġserbia": 8483,
      "##cca": 8484,
      "Ġkap": 8485,
      "Ġft": 8486,
      "##uble": 8487,
      "Ġcarn": 8488,
      "Ġstim": 8489,
      "Ġ155": 8490,
      "Ġtribute": 8491,
      "Ġdoesn": 8492,
      "Ġoutd": 8493,
      "Ġrebuilt": 8494,
      "Ġhein": 8495,
      "Ġtriang": 8496,
      "Ġfilming": 8497,
      "Ġmarit": 8498,
      "Ġthrone": 8499,
      "##gate": 8500,
      "##ridge": 8501,
      "##rine": 8502,
      "Ġbiography": 8503,
      "Ġgenerated": 8504,
      "Ġharrison": 8505,
      "Ġstrip": 8506,
      "Ġpossession": 8507,
      "Ġtum": 8508,
      "Ġcock": 8509,
      "Ġapartment": 8510,
      "Ġdrivers": 8511,
      "Ġtool": 8512,
      "Ġsubstantial": 8513,
      "Ġsight": 8514,
      "Ġtiss": 8515,
      "Ġdiscrimin": 8516,
      "Ġscientist": 8517,
      "Ġlinks": 8518,
      "Ġanthrop": 8519,
      "Ġpublicly": 8520,
      "Ġrender": 8521,
      "Ġpine": 8522,
      "##Ð»": 8523,
      "##rac": 8524,
      "Ġchoose": 8525,
      "Ġcharacterized": 8526,
      "##donald": 8527,
      "Ġlose": 8528,
      "Ġcaribbean": 8529,
      "Ġadminister": 8530,
      "Ġvolunteer": 8531,
      "Ġpropag": 8532,
      "Ġbea": 8533,
      "Ġalter": 8534,
      "Ġjama": 8535,
      "Ġ1881": 8536,
      "Ġfi": 8537,
      "Ġassets": 8538,
      "Ġlag": 8539,
      "Ġpartly": 8540,
      "Ġrelocated": 8541,
      "##cul": 8542,
      "Ġreporter": 8543,
      "##oba": 8544,
      "Ġjonathan": 8545,
      "Ġyield": 8546,
      "Ġwidow": 8547,
      "##rating": 8548,
      "Ġwells": 8549,
      "Ġnu": 8550,
      "Ġassisted": 8551,
      "Ġempt": 8552,
      "Ġguardian": 8553,
      "Ġcarrier": 8554,
      "Ġhole": 8555,
      "Ġparker": 8556,
      "Ġmoves": 8557,
      "Ġvit": 8558,
      "Ġbeijing": 8559,
      "Ġhighlight": 8560,
      "Ġbristol": 8561,
      "Ġcharlotte": 8562,
      "##ricted": 8563,
      "##ario": 8564,
      "Ġchel": 8565,
      "##enz": 8566,
      "Ġmakeup": 8567,
      "Ġlimits": 8568,
      "##pie": 8569,
      "Ġreleases": 8570,
      "##sea": 8571,
      "Ġdebt": 8572,
      "Ġfoster": 8573,
      "Ġextent": 8574,
      "Ġcotton": 8575,
      "Ġviolent": 8576,
      "Ġexclud": 8577,
      "Ġbengal": 8578,
      "Ġcategories": 8579,
      "Ġattending": 8580,
      "Ġguilty": 8581,
      "Ġdisapp": 8582,
      "Ġwalking": 8583,
      "Ġentrep": 8584,
      "Ġrelation": 8585,
      "##oviÄĩ": 8586,
      "Ġswit": 8587,
      "Ġencycl": 8588,
      "##eton": 8589,
      "Ġcanon": 8590,
      "##iph": 8591,
      "Ġ21st": 8592,
      "Ġalive": 8593,
      "Ġmanhattan": 8594,
      "Ġpicked": 8595,
      "Ġbalance": 8596,
      "Ġcort": 8597,
      "Ġcp": 8598,
      "Ġ125": 8599,
      "Ġcosta": 8600,
      "Ġmanor": 8601,
      "Ġvast": 8602,
      "Ġ110": 8603,
      "##kar": 8604,
      "Ġdock": 8605,
      "Ġpartially": 8606,
      "Ġviolin": 8607,
      "Ġtigers": 8608,
      "Ġsut": 8609,
      "##asi": 8610,
      "Ġslave": 8611,
      "##zes": 8612,
      "Ġopponents": 8613,
      "Ġincumbent": 8614,
      "Ġshadow": 8615,
      "Ġprel": 8616,
      "##ivan": 8617,
      "##ingham": 8618,
      "##gam": 8619,
      "Ġjail": 8620,
      "Ġ1882": 8621,
      "Ġexceed": 8622,
      "Ġcompens": 8623,
      "Ġlanka": 8624,
      "Ġmaine": 8625,
      "Ġcounsel": 8626,
      "Ġlegs": 8627,
      "Ġkirk": 8628,
      "##terior": 8629,
      "Ġadvice": 8630,
      "Ġmissed": 8631,
      "Ġlowest": 8632,
      "Ġoliver": 8633,
      "Ġloop": 8634,
      "Ġtraded": 8635,
      "Ġdepict": 8636,
      "Ġreduction": 8637,
      "Ġpent": 8638,
      "Ġconcentration": 8639,
      "##nda": 8640,
      "##encing": 8641,
      "Ġguinea": 8642,
      "Ġconsolid": 8643,
      "Ġcum": 8644,
      "Ġlocally": 8645,
      "Ġentrepren": 8646,
      "Ġexposed": 8647,
      "Ġjet": 8648,
      "Ġtemp": 8649,
      "Ġaggreg": 8650,
      "Ġrhod": 8651,
      "Ġpractical": 8652,
      "Ġapply": 8653,
      "Ġpeer": 8654,
      "Ġregist": 8655,
      "Ġdeployed": 8656,
      "Ġabdul": 8657,
      "Ġwearing": 8658,
      "Ġhawaii": 8659,
      "Ġholiday": 8660,
      "Ġdisband": 8661,
      "Ġcloser": 8662,
      "Ġantar": 8663,
      "Ġnun": 8664,
      "Ġdeuts": 8665,
      "Ġiranian": 8666,
      "Ġwu": 8667,
      "Ġeagle": 8668,
      "##van": 8669,
      "##oga": 8670,
      "Ġnotice": 8671,
      "Ġgust": 8672,
      "Ġtheod": 8673,
      "Ġvacc": 8674,
      "##gart": 8675,
      "##rah": 8676,
      "##feld": 8677,
      "Ġfacilit": 8678,
      "##gel": 8679,
      "##lain": 8680,
      "Ġsilent": 8681,
      "Ġbert": 8682,
      "Ġestablishing": 8683,
      "Ġcollins": 8684,
      "Ġferry": 8685,
      "##jar": 8686,
      "Ġongoing": 8687,
      "##80": 8688,
      "Ġced": 8689,
      "##ju": 8690,
      "Ġvlad": 8691,
      "Ġgenetic": 8692,
      "Ġrebellion": 8693,
      "Ġorb": 8694,
      "##uka": 8695,
      "Ġearning": 8696,
      "Ġcredits": 8697,
      "Ġranks": 8698,
      "Ġbald": 8699,
      "Ġclinton": 8700,
      "Ġcruc": 8701,
      "Ġaa": 8702,
      "Ġadvisory": 8703,
      "##mm": 8704,
      "Ġimplemented": 8705,
      "##place": 8706,
      "##cu": 8707,
      "Ġanat": 8708,
      "Ġbullet": 8709,
      "Ġgabri": 8710,
      "##acu": 8711,
      "Ġdil": 8712,
      "Ġscr": 8713,
      "Ġist": 8714,
      "Ġemig": 8715,
      "Ġturner": 8716,
      "Ġanimation": 8717,
      "Ġkab": 8718,
      "Ġelite": 8719,
      "##fo": 8720,
      "Ġkay": 8721,
      "##cts": 8722,
      "Ġcontinuous": 8723,
      "##oni": 8724,
      "Ġtoured": 8725,
      "Ġhudson": 8726,
      "Ġadela": 8727,
      "Ġfriday": 8728,
      "##ication": 8729,
      "Ġprinciple": 8730,
      "Ġreservoir": 8731,
      "Ġplayoffs": 8732,
      "Ġbyz": 8733,
      "Ġindicates": 8734,
      "Ġapost": 8735,
      "Ġphd": 8736,
      "Ġsettlers": 8737,
      "Ġwoods": 8738,
      "##soft": 8739,
      "Ġventure": 8740,
      "##brid": 8741,
      "Ġoperator": 8742,
      "Ġsacred": 8743,
      "Ġrect": 8744,
      "Ġbridges": 8745,
      "Ġkle": 8746,
      "Ġsatisf": 8747,
      "Ġsubsidiary": 8748,
      "Ġappropriate": 8749,
      "ĠnÃ©e": 8750,
      "Ġdecisions": 8751,
      "Ġcommented": 8752,
      "Ġdoors": 8753,
      "Ġterminus": 8754,
      "Ġglen": 8755,
      "Ġfurthermore": 8756,
      "Ġlex": 8757,
      "##ishment": 8758,
      "Ġreveals": 8759,
      "Ġasks": 8760,
      "Ġchancellor": 8761,
      "##keeper": 8762,
      "##licit": 8763,
      "Ġconsumer": 8764,
      "##hill": 8765,
      "Ġmoral": 8766,
      "Ġyam": 8767,
      "Ġheir": 8768,
      "##castle": 8769,
      "Ġautomatic": 8770,
      "Ġsympt": 8771,
      "Ġceased": 8772,
      "Ġyang": 8773,
      "##Ãª": 8774,
      "Ġtut": 8775,
      "Ġ1883": 8776,
      "Ġcertific": 8777,
      "##acht": 8778,
      "##onymous": 8779,
      "Ġlav": 8780,
      "##using": 8781,
      "Ġalgor": 8782,
      "Ġideal": 8783,
      "Ġenjoyed": 8784,
      "##bane": 8785,
      "Ġpossibility": 8786,
      "Ġcertified": 8787,
      "##nik": 8788,
      "##ndar": 8789,
      "Ġimmigrants": 8790,
      "##apping": 8791,
      "##rett": 8792,
      "Ġdrafted": 8793,
      "Ġatom": 8794,
      "Ġsubstitute": 8795,
      "Ġmotors": 8796,
      "Ġtrinity": 8797,
      "Ġflower": 8798,
      "Ġfighters": 8799,
      "Ġharbour": 8800,
      "Ġvoiv": 8801,
      "Ġmd": 8802,
      "Ġlions": 8803,
      "##bel": 8804,
      "##the": 8805,
      "##othy": 8806,
      "Ġmunich": 8807,
      "Ġmoll": 8808,
      "##esco": 8809,
      "Ġalgorith": 8810,
      "##pat": 8811,
      "Ġdrummer": 8812,
      "Ġdisplayed": 8813,
      "##fs": 8814,
      "Ġconcerning": 8815,
      "Ġimplementation": 8816,
      "Ġnarrative": 8817,
      "Ġproduces": 8818,
      "##stit": 8819,
      "Ġpond": 8820,
      "Ġcompleting": 8821,
      "Ġencyclop": 8822,
      "Ġnur": 8823,
      "Ġsket": 8824,
      "Ġpill": 8825,
      "##emed": 8826,
      "Ġshopping": 8827,
      "Ġmeg": 8828,
      "Ġenterprise": 8829,
      "Ġblow": 8830,
      "##iya": 8831,
      "##iveness": 8832,
      "Ġeldest": 8833,
      "Ġconnecting": 8834,
      "Ġ1860": 8835,
      "Ġpresid": 8836,
      "Ġcatherine": 8837,
      "Ġqualify": 8838,
      "##arus": 8839,
      "Ġrela": 8840,
      "Ġcardinal": 8841,
      "Ġvolunteers": 8842,
      "Ġ1876": 8843,
      "Ġphoenix": 8844,
      "Ġclosing": 8845,
      "Ġdelivery": 8846,
      "Ġacoust": 8847,
      "Ġkids": 8848,
      "Ġneutral": 8849,
      "Ġevangel": 8850,
      "Ġdiscussed": 8851,
      "##fish": 8852,
      "Ġexercise": 8853,
      "##ancing": 8854,
      "##Å¾": 8855,
      "Ġmachines": 8856,
      "Ġhidden": 8857,
      "Ġsz": 8858,
      "Ġcolors": 8859,
      "Ġvill": 8860,
      "Ġcanton": 8861,
      "Ġpatterns": 8862,
      "Ġcollective": 8863,
      "Ġ1878": 8864,
      "Ġphilippine": 8865,
      "Ġfifteen": 8866,
      "Ġlloyd": 8867,
      "Ġmuslims": 8868,
      "Ġbarcel": 8869,
      "Ġgau": 8870,
      "Ġnearest": 8871,
      "Ġrevised": 8872,
      "Ġvincent": 8873,
      "Ġautonom": 8874,
      "Ġdoubles": 8875,
      "Ġenforcement": 8876,
      "Ġremove": 8877,
      "Ġindoor": 8878,
      "Ġarrangement": 8879,
      "##Ã©n": 8880,
      "Ġministers": 8881,
      "Ġaber": 8882,
      "Ġscor": 8883,
      "Ġroot": 8884,
      "Ġhob": 8885,
      "Ġdemocrat": 8886,
      "Ġclimb": 8887,
      "Ġliz": 8888,
      "Ġgren": 8889,
      "Ġmerger": 8890,
      "Ġbelonged": 8891,
      "Ġwelf": 8892,
      "Ġcamps": 8893,
      "Ġpon": 8894,
      "Ġcommons": 8895,
      "Ġsignif": 8896,
      "Ġsuburb": 8897,
      "Ġdum": 8898,
      "Ġterritorial": 8899,
      "Ġsecured": 8900,
      "Ġdiscussion": 8901,
      "Ġcuba": 8902,
      "Ġinterpre": 8903,
      "##jab": 8904,
      "Ġballet": 8905,
      "Ġguild": 8906,
      "Ġaar": 8907,
      "Ġæ": 8908,
      "Ġmotiv": 8909,
      "Ġtraditions": 8910,
      "Ġgrav": 8911,
      "Ġforg": 8912,
      "##urally": 8913,
      "Ġorn": 8914,
      "##ogle": 8915,
      "Ġarist": 8916,
      "Ġresort": 8917,
      "Ġdelta": 8918,
      "Ġ1871": 8919,
      "##nell": 8920,
      "##obi": 8921,
      "Ġral": 8922,
      "Ġsak": 8923,
      "Ġderby": 8924,
      "Ġrecovery": 8925,
      "Ġmold": 8926,
      "Ġclearly": 8927,
      "Ġorganis": 8928,
      "##ige": 8929,
      "Ġrally": 8930,
      "Ġcinc": 8931,
      "##25": 8932,
      "Ġdeclar": 8933,
      "Ġdecides": 8934,
      "Ġ1940s": 8935,
      "Ġlayer": 8936,
      "Ġreporting": 8937,
      "Ġfocuses": 8938,
      "##ulating": 8939,
      "##ÅŁ": 8940,
      "Ġcc": 8941,
      "Ġspider": 8942,
      "##erted": 8943,
      "##roph": 8944,
      "##ensively": 8945,
      "##uces": 8946,
      "Ġhugh": 8947,
      "Ġpassion": 8948,
      "Ġresponded": 8949,
      "Ġghana": 8950,
      "Ġbone": 8951,
      "Ġsmooth": 8952,
      "Ġherbert": 8953,
      "##hal": 8954,
      "Ġinternationally": 8955,
      "Ġhann": 8956,
      "Ġfee": 8957,
      "##stad": 8958,
      "Ġdismissed": 8959,
      "Ġworst": 8960,
      "Ġphotographer": 8961,
      "Ġconvicted": 8962,
      "##oca": 8963,
      "##station": 8964,
      "Ġcattle": 8965,
      "Ġgosp": 8966,
      "##point": 8967,
      "Ġmaps": 8968,
      "##60": 8969,
      "Ġphysician": 8970,
      "##ais": 8971,
      "Ġhorizon": 8972,
      "Ġliberty": 8973,
      "Ġamster": 8974,
      "##owski": 8975,
      "Ġpunk": 8976,
      "Ġexclusively": 8977,
      "Ġadelaide": 8978,
      "Ġindeed": 8979,
      "Ġpalm": 8980,
      "Ġartific": 8981,
      "Ġtenth": 8982,
      "Ġshift": 8983,
      "Ġbesides": 8984,
      "Ġnad": 8985,
      "##enberg": 8986,
      "Ġclothing": 8987,
      "Ġinput": 8988,
      "Ġrecipient": 8989,
      "Ġtol": 8990,
      "Ġevacu": 8991,
      "ĠâĤ": 8992,
      "Ġhebrew": 8993,
      "Ġmaced": 8994,
      "Ġcircumstances": 8995,
      "Ġopponent": 8996,
      "Ġalaska": 8997,
      "Ġdiff": 8998,
      "Ġthinking": 8999,
      "Ġinitiated": 9000,
      "Ġaffair": 9001,
      "Ġlifetime": 9002,
      "Ġanaly": 9003,
      "Ġmeat": 9004,
      "Ġcraig": 9005,
      "##agre": 9006,
      "##view": 9007,
      "##Ã©t": 9008,
      "Ġforty": 9009,
      "##iture": 9010,
      "Ġjerry": 9011,
      "Ġcrossed": 9012,
      "##lus": 9013,
      "##vised": 9014,
      "Ġbanned": 9015,
      "Ġties": 9016,
      "Ġbent": 9017,
      "Ġarmenian": 9018,
      "Ġacquisition": 9019,
      "Ġgamb": 9020,
      "Ġbuddhist": 9021,
      "Ġconversion": 9022,
      "##anim": 9023,
      "Ġperu": 9024,
      "Ġhale": 9025,
      "Ġsyria": 9026,
      "Ġreorgan": 9027,
      "Ġfriendship": 9028,
      "Ġamsterdam": 9029,
      "##folk": 9030,
      "##wig": 9031,
      "Ġfuneral": 9032,
      "Ġdiverse": 9033,
      "Ġassum": 9034,
      "##ulum": 9035,
      "Ġstevens": 9036,
      "Ġmarvel": 9037,
      "Ġdispute": 9038,
      "Ġrook": 9039,
      "Ġmarry": 9040,
      "Ġmaritime": 9041,
      "Ġelsewhere": 9042,
      "Ġpublishers": 9043,
      "Ġcomprehensive": 9044,
      "Ġsurvive": 9045,
      "Ġbreast": 9046,
      "Ġrush": 9047,
      "##agn": 9048,
      "##sters": 9049,
      "Ġvariant": 9050,
      "Ġfed": 9051,
      "##ascar": 9052,
      "##vereign": 9053,
[...]
